{
  "vocab" : {
    "0" : "Ā",
    "1" : "ā",
    "2" : "Ă",
    "3" : "ă",
    "4" : "Ą",
    "5" : "ą",
    "6" : "Ć",
    "7" : "ć",
    "8" : "Ĉ",
    "9" : "ĉ",
    "10" : "Ċ",
    "11" : "ċ",
    "12" : "Č",
    "13" : "č",
    "14" : "Ď",
    "15" : "ď",
    "16" : "Đ",
    "17" : "đ",
    "18" : "Ē",
    "19" : "ē",
    "20" : "Ĕ",
    "21" : "ĕ",
    "22" : "Ė",
    "23" : "ė",
    "24" : "Ę",
    "25" : "ę",
    "26" : "Ě",
    "27" : "ě",
    "28" : "Ĝ",
    "29" : "ĝ",
    "30" : "Ğ",
    "31" : "ğ",
    "32" : "Ġ",
    "33" : "!",
    "34" : "\"",
    "35" : "#",
    "36" : "$",
    "37" : "%",
    "38" : "&",
    "39" : "'",
    "40" : "(",
    "41" : ")",
    "42" : "*",
    "43" : "+",
    "44" : ",",
    "45" : "-",
    "46" : ".",
    "47" : "/",
    "48" : "0",
    "49" : "1",
    "50" : "2",
    "51" : "3",
    "52" : "4",
    "53" : "5",
    "54" : "6",
    "55" : "7",
    "56" : "8",
    "57" : "9",
    "58" : ":",
    "59" : ";",
    "60" : "<",
    "61" : "=",
    "62" : ">",
    "63" : "?",
    "64" : "@",
    "65" : "A",
    "66" : "B",
    "67" : "C",
    "68" : "D",
    "69" : "E",
    "70" : "F",
    "71" : "G",
    "72" : "H",
    "73" : "I",
    "74" : "J",
    "75" : "K",
    "76" : "L",
    "77" : "M",
    "78" : "N",
    "79" : "O",
    "80" : "P",
    "81" : "Q",
    "82" : "R",
    "83" : "S",
    "84" : "T",
    "85" : "U",
    "86" : "V",
    "87" : "W",
    "88" : "X",
    "89" : "Y",
    "90" : "Z",
    "91" : "[",
    "92" : "\\",
    "93" : "]",
    "94" : "^",
    "95" : "_",
    "96" : "`",
    "97" : "a",
    "98" : "b",
    "99" : "c",
    "100" : "d",
    "101" : "e",
    "102" : "f",
    "103" : "g",
    "104" : "h",
    "105" : "i",
    "106" : "j",
    "107" : "k",
    "108" : "l",
    "109" : "m",
    "110" : "n",
    "111" : "o",
    "112" : "p",
    "113" : "q",
    "114" : "r",
    "115" : "s",
    "116" : "t",
    "117" : "u",
    "118" : "v",
    "119" : "w",
    "120" : "x",
    "121" : "y",
    "122" : "z",
    "123" : "{",
    "124" : "|",
    "125" : "}",
    "126" : "~",
    "127" : "ġ",
    "128" : "Ģ",
    "129" : "ģ",
    "130" : "Ĥ",
    "131" : "ĥ",
    "132" : "Ħ",
    "133" : "ħ",
    "134" : "Ĩ",
    "135" : "ĩ",
    "136" : "Ī",
    "137" : "ī",
    "138" : "Ĭ",
    "139" : "ĭ",
    "140" : "Į",
    "141" : "į",
    "142" : "İ",
    "143" : "ı",
    "144" : "Ĳ",
    "145" : "ĳ",
    "146" : "Ĵ",
    "147" : "ĵ",
    "148" : "Ķ",
    "149" : "ķ",
    "150" : "ĸ",
    "151" : "Ĺ",
    "152" : "ĺ",
    "153" : "Ļ",
    "154" : "ļ",
    "155" : "Ľ",
    "156" : "ľ",
    "157" : "Ŀ",
    "158" : "ŀ",
    "159" : "Ł",
    "160" : "ł",
    "161" : "¡",
    "162" : "¢",
    "163" : "£",
    "164" : "¤",
    "165" : "¥",
    "166" : "¦",
    "167" : "§",
    "168" : "¨",
    "169" : "©",
    "170" : "ª",
    "171" : "«",
    "172" : "¬",
    "173" : "Ń",
    "174" : "®",
    "175" : "¯",
    "176" : "°",
    "177" : "±",
    "178" : "²",
    "179" : "³",
    "180" : "´",
    "181" : "µ",
    "182" : "¶",
    "183" : "·",
    "184" : "¸",
    "185" : "¹",
    "186" : "º",
    "187" : "»",
    "188" : "¼",
    "189" : "½",
    "190" : "¾",
    "191" : "¿",
    "192" : "À",
    "193" : "Á",
    "194" : "Â",
    "195" : "Ã",
    "196" : "Ä",
    "197" : "Å",
    "198" : "Æ",
    "199" : "Ç",
    "200" : "È",
    "201" : "É",
    "202" : "Ê",
    "203" : "Ë",
    "204" : "Ì",
    "205" : "Í",
    "206" : "Î",
    "207" : "Ï",
    "208" : "Ð",
    "209" : "Ñ",
    "210" : "Ò",
    "211" : "Ó",
    "212" : "Ô",
    "213" : "Õ",
    "214" : "Ö",
    "215" : "×",
    "216" : "Ø",
    "217" : "Ù",
    "218" : "Ú",
    "219" : "Û",
    "220" : "Ü",
    "221" : "Ý",
    "222" : "Þ",
    "223" : "ß",
    "224" : "à",
    "225" : "á",
    "226" : "â",
    "227" : "ã",
    "228" : "ä",
    "229" : "å",
    "230" : "æ",
    "231" : "ç",
    "232" : "è",
    "233" : "é",
    "234" : "ê",
    "235" : "ë",
    "236" : "ì",
    "237" : "í",
    "238" : "î",
    "239" : "ï",
    "240" : "ð",
    "241" : "ñ",
    "242" : "ò",
    "243" : "ó",
    "244" : "ô",
    "245" : "õ",
    "246" : "ö",
    "247" : "÷",
    "248" : "ø",
    "249" : "ù",
    "250" : "ú",
    "251" : "û",
    "252" : "ü",
    "253" : "ý",
    "254" : "þ",
    "255" : "ÿ",
    "256" : "<|bos|>",
    "257" : "<|eos|>",
    "258" : "<|user|>",
    "259" : "<|assistant|>",
    "260" : "eĠ",
    "261" : "čĊ",
    "262" : "Ġt",
    "263" : "in",
    "264" : "Ġa",
    "265" : "er",
    "266" : "sĠ",
    "267" : "heĠ",
    "268" : "en",
    "269" : "dĠ",
    "270" : "on",
    "271" : "at",
    "272" : "or",
    "273" : "ĠtheĠ",
    "274" : "an",
    "275" : "es",
    "276" : "ing",
    "277" : "Ġan",
    "278" : "it",
    "279" : "Ġs",
    "280" : "re",
    "281" : ".čĊ",
    "282" : "al",
    "283" : "of",
    "284" : "tĠ",
    "285" : ".Ġ",
    "286" : ",Ġ",
    "287" : "ou",
    "288" : "ar",
    "289" : "oĠ",
    "290" : "ic",
    "291" : "yĠ",
    "292" : "ion",
    "293" : "ĠandĠ",
    "294" : "is",
    "295" : "om",
    "296" : "Ġc",
    "297" : "ent",
    "298" : "as",
    "299" : "le",
    "300" : "eĠt",
    "301" : "ingĠ",
    "302" : "ro",
    "303" : "Ġth",
    "304" : "us",
    "305" : "ĠtoĠ",
    "306" : "ĠaĠ",
    "307" : "el",
    "308" : "ch",
    "309" : "for",
    "310" : "iv",
    "311" : "ct",
    "312" : "ed",
    "313" : "lo",
    "314" : "ofĠ",
    "315" : "il",
    "316" : "edĠ",
    "317" : "et",
    "318" : "isĠ",
    "319" : "im",
    "320" : "ol",
    "321" : "ur",
    "322" : "erĠ",
    "323" : "st",
    "324" : "eĠa",
    "325" : "esĠ",
    "326" : "ation",
    "327" : "ĠĠ",
    "328" : "pro",
    "329" : "em",
    "330" : "TheĠ",
    "331" : "ig",
    "332" : "pl",
    "333" : "Ġw",
    "334" : "th",
    "335" : "id",
    "336" : "am",
    "337" : "alĠ",
    "338" : "Ġto",
    "339" : "ut",
    "340" : "enc",
    "341" : "ir",
    "342" : "ith",
    "343" : "Ġb",
    "344" : "un",
    "345" : "if",
    "346" : "ul",
    "347" : "eĠtheĠ",
    "348" : "ex",
    "349" : "ec",
    "350" : "ha",
    "351" : "po",
    "352" : "ag",
    "353" : "Ġin",
    "354" : "ac",
    "355" : "Ġm",
    "356" : "Ġar",
    "357" : "ab",
    "358" : "ess",
    "359" : "um",
    "360" : "Ġd",
    "361" : "eĠan",
    "362" : "ain",
    "363" : "ak",
    "364" : "our",
    "365" : "per",
    "366" : "ev",
    "367" : "Ġthat",
    "368" : "Ġst",
    "369" : "Ġand",
    "370" : "no",
    "371" : "Ġal",
    "372" : "all",
    "373" : "ofĠtheĠ",
    "374" : "low",
    "375" : ",ĠandĠ",
    "376" : "qu",
    "377" : "eĠs",
    "378" : "e.čĊ",
    "379" : ":Ġ",
    "380" : "pr",
    "381" : "op",
    "382" : "wh",
    "383" : "čĊTheĠ",
    "384" : "ad",
    "385" : "reat",
    "386" : "ay",
    "387" : "fr",
    "388" : "ter",
    "389" : "with",
    "390" : "wor",
    "391" : "entĠ",
    "392" : "com",
    "393" : "ne",
    "394" : "oun",
    "395" : "con",
    "396" : "igh",
    "397" : "mo",
    "398" : "est",
    "399" : "leĠ",
    "400" : "he",
    "401" : "ow",
    "402" : "čĊC",
    "403" : "ver",
    "404" : "du",
    "405" : "ri",
    "406" : "anĠ",
    "407" : ".ĠI",
    "408" : "ef",
    "409" : "s.čĊ",
    "410" : "eĠaĠ",
    "411" : "s,Ġ",
    "412" : "oul",
    "413" : "-Ġ",
    "414" : "oo",
    "415" : "ener",
    "416" : "pe",
    "417" : "ust",
    "418" : "ang",
    "419" : "iveĠ",
    "420" : "iz",
    "421" : "sĠandĠ",
    "422" : "ist",
    "423" : "eĠandĠ",
    "424" : "inĠ",
    "425" : "ud",
    "426" : "inĠtheĠ",
    "427" : "ĠĠĠĠ",
    "428" : "ĠasĠ",
    "429" : "fe",
    "430" : "ep",
    "431" : "ant",
    "432" : "cl",
    "433" : "Ġthe",
    "434" : "entenc",
    "435" : "gr",
    "436" : "ouldĠ",
    "437" : "ort",
    "438" : "int",
    "439" : "hat",
    "440" : "up",
    "441" : "oc",
    "442" : ".ĠA",
    "443" : "ap",
    "444" : "čĊA",
    "445" : "anc",
    "446" : "ĠisĠ",
    "447" : "ction",
    "448" : "from",
    "449" : "ill",
    "450" : "form",
    "451" : "out",
    "452" : "e,Ġ",
    "453" : "fol",
    "454" : "ach",
    "455" : ".ĠT",
    "456" : "prov",
    "457" : "be",
    "458" : "enĠ",
    "459" : "res",
    "460" : "ment",
    "461" : "ity",
    "462" : "we",
    "463" : "follow",
    "464" : "ĠareĠ",
    "465" : "Ġis",
    "466" : "and",
    "467" : "forĠ",
    "468" : "ell",
    "469" : "Ġcom",
    "470" : "cc",
    "471" : "eĠtoĠ",
    "472" : "ingĠtheĠ",
    "473" : "hav",
    "474" : "čĊI",
    "475" : "ot",
    "476" : "you",
    "477" : "ateĠ",
    "478" : "ind",
    "479" : "Ġtr",
    "480" : "oth",
    "481" : "čĊG",
    "482" : "orĠ",
    "483" : "'sĠ",
    "484" : ",Ġs",
    "485" : "av",
    "486" : "ĠaĠs",
    "487" : "hisĠ",
    "488" : "end",
    "489" : "čĊW",
    "490" : ".ĠTheĠ",
    "491" : "rit",
    "492" : "ers",
    "493" : "port",
    "494" : "kĠ",
    "495" : "ata",
    "496" : "asĠ",
    "497" : "eĠofĠ",
    "498" : "čĊ-Ġ",
    "499" : "act",
    "500" : "Ġas",
    "501" : "eĠc",
    "502" : "lyĠ",
    "503" : "Ġcon",
    "504" : "log",
    "505" : "sĠofĠ",
    "506" : "ialĠ",
    "507" : "uch",
    "508" : "li",
    "509" : "od",
    "510" : "par",
    "511" : "Ġab",
    "512" : "arn",
    "513" : "duc",
    "514" : "čĊS",
    "515" : "onĠ",
    "516" : "ition",
    "517" : "edĠtoĠ",
    "518" : "čĊD",
    "519" : "ies",
    "520" : "Ġte",
    "521" : "mor",
    "522" : "y,Ġ",
    "523" : "ĠtheĠs",
    "524" : "ĠanĠ",
    "525" : "ingĠs",
    "526" : "eĠd",
    "527" : "der",
    "528" : "put",
    "529" : "reas",
    "530" : "eg",
    "531" : "ĠofĠ",
    "532" : "pre",
    "533" : "ign",
    "534" : "fer",
    "535" : "ph",
    "536" : "giv",
    "537" : "hel",
    "538" : "Ġad",
    "539" : "ayĠ",
    "540" : "ustom",
    "541" : "beĠ",
    "542" : "eĠof",
    "543" : "str",
    "544" : "tĠofĠ",
    "545" : "ight",
    "546" : "ear",
    "547" : "ast",
    "548" : "ple",
    "549" : "ineĠ",
    "550" : "ass",
    "551" : "learn",
    "552" : "Ġtheir",
    "553" : "sĠtoĠ",
    "554" : "Ġf",
    "555" : "pos",
    "556" : "mak",
    "557" : "ure",
    "558" : "Ġsh",
    "559" : "gh",
    "560" : "your",
    "561" : "new",
    "562" : "ly",
    "563" : "help",
    "564" : "anĠb",
    "565" : "?čĊ",
    "566" : "inc",
    "567" : "erv",
    "568" : "esc",
    "569" : "ableĠ",
    "570" : "ew",
    "571" : "rec",
    "572" : "ĠthatĠ",
    "573" : "mar",
    "574" : "ich",
    "575" : "Ġals",
    "576" : "ob",
    "577" : "yst",
    "578" : ",ĠtheĠ",
    "579" : "essĠ",
    "580" : "aĠ",
    "581" : "ele",
    "582" : "ult",
    "583" : "escri",
    "584" : "her",
    "585" : "es.čĊ",
    "586" : "icĠ",
    "587" : "eĠw",
    "588" : "data",
    "589" : ".ĠS",
    "590" : "provid",
    "591" : "Ġap",
    "592" : "os",
    "593" : ".ĠItĠ",
    "594" : "byĠ",
    "595" : "ĠtoĠtheĠ",
    "596" : "čĊ1",
    "597" : "es,Ġ",
    "598" : ".ĠčĊ",
    "599" : "bl",
    "600" : "br",
    "601" : ",Ġand",
    "602" : "ough",
    "603" : "ens",
    "604" : "Ġwith",
    "605" : "enerat",
    "606" : "00",
    "607" : "eĠto",
    "608" : "eas",
    "609" : "ienc",
    "610" : "itsĠ",
    "611" : "work",
    "612" : "čĊT",
    "613" : "ĠaĠc",
    "614" : "eng",
    "615" : "ong",
    "616" : "ful",
    "617" : "ication",
    "618" : "ityĠ",
    "619" : "uchĠasĠ",
    "620" : "ip",
    "621" : "nĠ",
    "622" : "over",
    "623" : "y.čĊ",
    "624" : "Ġtim",
    "625" : "iesĠ",
    "626" : "atur",
    "627" : "sĠs",
    "628" : "clud",
    "629" : "Ġacc",
    "630" : "outĠ",
    "631" : "dr",
    "632" : "ystem",
    "633" : "ingĠaĠ",
    "634" : "ect",
    "635" : "estĠ",
    "636" : "energ",
    "637" : "fic",
    "638" : "ĠalsoĠ",
    "639" : "withĠ",
    "640" : "yp",
    "641" : "ans",
    "642" : "abl",
    "643" : "Ġat",
    "644" : "lik",
    "645" : "tion",
    "646" : ".ĠH",
    "647" : "ution",
    "648" : "vi",
    "649" : "chno",
    "650" : "ount",
    "651" : "čĊGenerat",
    "652" : "chnolog",
    "653" : "--",
    "654" : "bet",
    "655" : "etĠ",
    "656" : "alth",
    "657" : "stĠ",
    "658" : "tic",
    "659" : "ageĠ",
    "660" : "sĠof",
    "661" : "onĠtheĠ",
    "662" : "čĊE",
    "663" : "ack",
    "664" : "iffer",
    "665" : "proc",
    "666" : "sĠc",
    "667" : "ient",
    "668" : "dition",
    "669" : "ever",
    "670" : "ound",
    "671" : "ingĠc",
    "672" : "ish",
    "673" : "man",
    "674" : "itĠ",
    "675" : "tent",
    "676" : "allyĠ",
    "677" : "yĠtheĠ",
    "678" : "way",
    "679" : "esĠandĠ",
    "680" : "oneĠ",
    "681" : "ial",
    "682" : "hasĠ",
    "683" : "Ġl",
    "684" : "ard",
    "685" : "creat",
    "686" : "čĊR",
    "687" : "ous",
    "688" : "icalĠ",
    "689" : "ail",
    "690" : "how",
    "691" : "now",
    "692" : "ug",
    "693" : "arg",
    "694" : "escrib",
    "695" : "Ġof",
    "696" : "ib",
    "697" : "čĊF",
    "698" : "čĊĠĠĠĠ",
    "699" : "eth",
    "700" : "olv",
    "701" : "red",
    "702" : "reduc",
    "703" : "ext",
    "704" : "includ",
    "705" : "Ġfor",
    "706" : "antĠ",
    "707" : ".ĠC",
    "708" : "pers",
    "709" : "wer",
    "710" : "import",
    "711" : "ing.čĊ",
    "712" : "ick",
    "713" : "which",
    "714" : "ustomer",
    "715" : "og",
    "716" : "Ġwh",
    "717" : "ousĠ",
    "718" : "followingĠ",
    "719" : "given",
    "720" : "eĠthat",
    "721" : "In",
    "722" : "health",
    "723" : "vir",
    "724" : "yĠandĠ",
    "725" : "ord",
    "726" : "inter",
    "727" : "dis",
    "728" : "ĠtheĠc",
    "729" : "moreĠ",
    "730" : "čĊCreat",
    "731" : "woĠ",
    "732" : "yĠs",
    "733" : "evel",
    "734" : "ĠtoĠs",
    "735" : "Ġstr",
    "736" : "eĠisĠ",
    "737" : "fect",
    "738" : "ečĊ",
    "739" : "me",
    "740" : "num",
    "741" : "tain",
    "742" : "anĠbeĠ",
    "743" : "haveĠ",
    "744" : "=Ġ",
    "745" : "lis",
    "746" : "ific",
    "747" : "hum",
    "748" : "uc",
    "749" : "plain",
    "750" : "ervic",
    "751" : "med",
    "752" : "utĠ",
    "753" : "ing,Ġ",
    "754" : ".ĠW",
    "755" : "lin",
    "756" : "exper",
    "757" : "ourc",
    "758" : ".ĠAd",
    "759" : "dec",
    "760" : "high",
    "761" : "ask",
    "762" : "aus",
    "763" : "nam",
    "764" : ".ĠF",
    "765" : "comm",
    "766" : "s,ĠandĠ",
    "767" : "entif",
    "768" : "produ",
    "769" : "Ġall",
    "770" : "Ġtak",
    "771" : "atedĠ",
    "772" : "art",
    "773" : "improv",
    "774" : "ightĠ",
    "775" : "evelop",
    "776" : "ath",
    "777" : "pleĠ",
    "778" : "Ġp",
    "779" : "ber",
    "780" : ".ĠThisĠ",
    "781" : "pon",
    "782" : "gram",
    "783" : "AI",
    "784" : "equ",
    "785" : "chang",
    "786" : "are",
    "787" : "su",
    "788" : "esign",
    "789" : "increas",
    "790" : "sh",
    "791" : "mentĠ",
    "792" : "val",
    "793" : "worl",
    "794" : "entenceĠ",
    "795" : "čĊP",
    "796" : "eĠth",
    "797" : "forĠaĠ",
    "798" : "ĠinĠ",
    "799" : "čĊWrit",
    "800" : "e,",
    "801" : "terĠ",
    "802" : "ical",
    "803" : "Ġch",
    "804" : "ĠthisĠ",
    "805" : "Ġabout",
    "806" : "Ġtechnolog",
    "807" : "del",
    "808" : "ingĠandĠ",
    "809" : "Ġstor",
    "810" : "rel",
    "811" : "ke",
    "812" : "ris",
    "813" : "ureĠ",
    "814" : "bas",
    "815" : "ject",
    "816" : "otherĠ",
    "817" : "stru",
    "818" : "ĠofĠtheĠ",
    "819" : "ble",
    "820" : "Ġallow",
    "821" : ".ĠIn",
    "822" : "oodĠ",
    "823" : "fin",
    "824" : "ision",
    "825" : "loc",
    "826" : "eĠaĠs",
    "827" : "St",
    "828" : "main",
    "829" : "gor",
    "830" : "vel",
    "831" : "stor",
    "832" : "notĠ",
    "833" : "ret",
    "834" : "olution",
    "835" : "word",
    "836" : "10",
    "837" : "ater",
    "838" : "areĠ",
    "839" : "wasĠ",
    "840" : "aly",
    "841" : "Ġthem",
    "842" : "ility",
    "843" : "fromĠ",
    "844" : "ithm",
    "845" : "gorithm",
    "846" : "sĠareĠ",
    "847" : "čĊN",
    "848" : "ari",
    "849" : "ook",
    "850" : "ĠtheirĠ",
    "851" : "ia",
    "852" : "ctiv",
    "853" : "row",
    "854" : "cons",
    "855" : "ov",
    "856" : "ĠtheĠt",
    "857" : "usedĠtoĠ",
    "858" : "cont",
    "859" : "viron",
    "860" : "de",
    "861" : "min",
    "862" : "lif",
    "863" : "Ġtyp",
    "864" : "omeĠ",
    "865" : "ween",
    "866" : "inv",
    "867" : "ular",
    "868" : "oundĠ",
    "869" : "own",
    "870" : "pan",
    "871" : "ement",
    "872" : "ectĠ",
    "873" : "peo",
    "874" : "20",
    "875" : "fl",
    "876" : "isĠaĠ",
    "877" : "plac",
    "878" : "exam",
    "879" : "under",
    "880" : "čĊWhat",
    "881" : "On",
    "882" : "go",
    "883" : "pres",
    "884" : "bs",
    "885" : "get",
    "886" : "has",
    "887" : "know",
    "888" : "rough",
    "889" : "oft",
    "890" : "ateg",
    "891" : "ĠtheyĠ",
    "892" : "able",
    "893" : "effect",
    "894" : "ĠisĠtheĠ",
    "895" : "ĠshouldĠ",
    "896" : "environ",
    "897" : "followingĠs",
    "898" : "čĊDescrib",
    "899" : "ditionall",
    "900" : "differ",
    "901" : "esĠtheĠ",
    "902" : ".ĠE",
    "903" : "čĊEx",
    "904" : ".ĠAdditionall",
    "905" : "aw",
    "906" : "ok",
    "907" : "great",
    "908" : "mostĠ",
    "909" : "person",
    "910" : "each",
    "911" : ".ĠB",
    "912" : ".ĠD",
    "913" : "ĠcanĠ",
    "914" : "enceĠ",
    "915" : "into",
    "916" : "pol",
    "917" : "arm",
    "918" : "ma",
    "919" : ".ĠP",
    "920" : "usin",
    "921" : "potent",
    "922" : "whil",
    "923" : "valu",
    "924" : "esĠofĠ",
    "925" : "ameĠ",
    "926" : "ood",
    "927" : "formation",
    "928" : "experienc",
    "929" : "blem",
    "930" : "day",
    "931" : "usĠ",
    "932" : "čĊH",
    "933" : "ire",
    "934" : "sĠtheĠ",
    "935" : "Ġcan",
    "936" : "problem",
    "937" : "youĠ",
    "938" : "process",
    "939" : "ugg",
    "940" : "\"čĊ",
    "941" : "Un",
    "942" : "s,",
    "943" : "urn",
    "944" : "19",
    "945" : "sĠthat",
    "946" : "esĠtoĠ",
    "947" : "usedĠ",
    "948" : "pec",
    "949" : "sĠinĠtheĠ",
    "950" : "ateĠtheĠ",
    "951" : "ĠčĊ",
    "952" : "inĠaĠ",
    "953" : "ingĠtoĠ",
    "954" : "lead",
    "955" : "econ",
    "956" : "yourĠ",
    "957" : "by",
    "958" : "idĠ",
    "959" : "requ",
    "960" : "plan",
    "961" : "eĠanĠ",
    "962" : "angu",
    "963" : "environment",
    "964" : "forĠtheĠ",
    "965" : "Ġalgorithm",
    "966" : "ccess",
    "967" : "earch",
    "968" : "čĊExplain",
    "969" : "dic",
    "970" : "larg",
    "971" : "ereĠ",
    "972" : "enef",
    "973" : "led",
    "974" : "other",
    "975" : "net",
    "976" : "reeĠ",
    "977" : "yĠofĠ",
    "978" : "ĠinĠtheĠ",
    "979" : "fromĠtheĠ",
    "980" : "mon",
    "981" : "stand",
    "982" : "čĊGenerateĠaĠ",
    "983" : "world",
    "984" : "gan",
    "985" : "pac",
    "986" : "vis",
    "987" : "čĊM",
    "988" : "af",
    "989" : "col",
    "990" : "ket",
    "991" : "xĠ",
    "992" : "ĠanĠin",
    "993" : "order",
    "994" : "edĠtheĠ",
    "995" : "plication",
    "996" : "program",
    "997" : "epĠ",
    "998" : "ellig",
    "999" : "bec",
    "1000" : "Ġcomput",
    "1001" : "Ġass",
    "1002" : "\".čĊ",
    "1003" : "mer",
    "1004" : "čĊB",
    "1005" : "ide",
    "1006" : "effic",
    "1007" : "tim",
    "1008" : "well",
    "1009" : "ideĠ",
    "1010" : "IĠ",
    "1011" : "aract",
    "1012" : "lob",
    "1013" : "eter",
    "1014" : "aph",
    "1015" : "do",
    "1016" : "but",
    "1017" : "čĊL",
    "1018" : "als",
    "1019" : "ĠandĠs",
    "1020" : "hadĠ",
    "1021" : "achineĠ",
    "1022" : "product",
    "1023" : "bsit",
    "1024" : "yĠtoĠ",
    "1025" : "ink",
    "1026" : "Ġwor",
    "1027" : "eĠand",
    "1028" : "fir",
    "1029" : "ub",
    "1030" : "ities",
    "1031" : "elyĠ",
    "1032" : "loy",
    "1033" : "čĊGiv",
    "1034" : "Ġadv",
    "1035" : "ĠtwoĠ",
    "1036" : "urr",
    "1037" : "čĊIn",
    "1038" : "between",
    "1039" : "human",
    "1040" : "lim",
    "1041" : "develop",
    "1042" : "vari",
    "1043" : "Ġsystem",
    "1044" : "Ġmor",
    "1045" : "listĠofĠ",
    "1046" : "ism",
    "1047" : "Ġservic",
    "1048" : "power",
    "1049" : "withĠtheĠ",
    "1050" : "e:Ġ",
    "1051" : "bot",
    "1052" : "ren",
    "1053" : "sĠand",
    "1054" : "rang",
    "1055" : "ĠwasĠ",
    "1056" : "ummar",
    "1057" : "bo",
    "1058" : "car",
    "1059" : "long",
    "1060" : "produc",
    "1061" : "extĠ",
    "1062" : "ificialĠ",
    "1063" : "basedĠ",
    "1064" : "čĊDescribeĠtheĠ",
    "1065" : "adĠ",
    "1066" : "cor",
    "1067" : "uit",
    "1068" : "elf",
    "1069" : "ivid",
    "1070" : "ourĠ",
    "1071" : "press",
    "1072" : "need",
    "1073" : "Ch",
    "1074" : "__",
    "1075" : "jo",
    "1076" : "fac",
    "1077" : "year",
    "1078" : "ativ",
    "1079" : "had",
    "1080" : "eĠsh",
    "1081" : "makeĠ",
    "1082" : "canĠ",
    "1083" : "fam",
    "1084" : "iet",
    "1085" : "natur",
    "1086" : "will",
    "1087" : "eĠofĠtheĠ",
    "1088" : "ersĠ",
    "1089" : "read",
    "1090" : "lov",
    "1091" : "Ġthrough",
    "1092" : "model",
    "1093" : ".ĠThe",
    "1094" : "assif",
    "1095" : "predic",
    "1096" : "fun",
    "1097" : "iqu",
    "1098" : "mall",
    "1099" : "ost",
    "1100" : ".ĠM",
    "1101" : ",ĠsuchĠasĠ",
    "1102" : "berĠ",
    "1103" : "level",
    "1104" : "estion",
    "1105" : "ĠaboutĠ",
    "1106" : "cul",
    "1107" : "ins",
    "1108" : "ated",
    "1109" : "ingĠa",
    "1110" : "Ġtask",
    "1111" : "ild",
    "1112" : "perform",
    "1113" : "entence.čĊ",
    "1114" : "struct",
    "1115" : "tĠof",
    "1116" : "organ",
    "1117" : "ization",
    "1118" : ".ĠTh",
    "1119" : "newĠ",
    "1120" : "energyĠ",
    "1121" : "pat",
    "1122" : "pur",
    "1123" : "was",
    "1124" : "langu",
    "1125" : "arĠ",
    "1126" : "information",
    "1127" : "wordĠ",
    "1128" : "ould",
    "1129" : "pect",
    "1130" : "ustomerĠ",
    "1131" : "can",
    "1132" : "aut",
    "1133" : "hom",
    "1134" : "pass",
    "1135" : "tificialĠ",
    "1136" : "sĠofĠtheĠ",
    "1137" : "ature",
    "1138" : "aryĠ",
    "1139" : "ledĠ",
    "1140" : "----",
    "1141" : "disc",
    "1142" : "gre",
    "1143" : "iev",
    "1144" : "lineĠ",
    "1145" : "sib",
    "1146" : "los",
    "1147" : "look",
    "1148" : ".ĠIt",
    "1149" : "understand",
    "1150" : "achineĠlearn",
    "1151" : "action",
    "1152" : "tr",
    "1153" : "item",
    "1154" : "ĠaĠb",
    "1155" : "tern",
    "1156" : "quick",
    "1157" : "ras",
    "1158" : "Ġanaly",
    "1159" : "respon",
    "1160" : "givenĠ",
    "1161" : "pa",
    "1162" : "pp",
    "1163" : "ym",
    "1164" : "sĠin",
    "1165" : "isĠtheĠ",
    "1166" : "eĠtheĠs",
    "1167" : "identif",
    "1168" : "event",
    "1169" : "Ġstud",
    "1170" : "comple",
    "1171" : "ewrit",
    "1172" : "herĠ",
    "1173" : "ric",
    "1174" : "tingĠ",
    "1175" : "ual",
    "1176" : "benef",
    "1177" : "čĊ2",
    "1178" : ".ĠR",
    "1179" : "iss",
    "1180" : "usingĠ",
    "1181" : "ĠandĠtheĠ",
    "1182" : "Ġtrans",
    "1183" : "čĊRewrit",
    "1184" : "čĊCreateĠaĠ",
    "1185" : "present",
    "1186" : "usiness",
    "1187" : "creas",
    "1188" : "til",
    "1189" : "glob",
    "1190" : "ativeĠ",
    "1191" : "play",
    "1192" : "ackĠ",
    "1193" : "view",
    "1194" : ".ĠAdditionally,Ġ",
    "1195" : "Ġ(",
    "1196" : "Ġsc",
    "1197" : ".čĊTheĠ",
    "1198" : "fri",
    "1199" : "whoĠ",
    "1200" : "ĠA",
    "1201" : "Jo",
    "1202" : "bu",
    "1203" : "reg",
    "1204" : "astĠ",
    "1205" : "Ġcreat",
    "1206" : "icallyĠ",
    "1207" : "educ",
    "1208" : "izeĠtheĠ",
    "1209" : "peopleĠ",
    "1210" : "e,ĠandĠ",
    "1211" : "lab",
    "1212" : "wo",
    "1213" : "ustĠ",
    "1214" : "ability",
    "1215" : "Ġcont",
    "1216" : "helpĠ",
    "1217" : "mĠ",
    "1218" : "ys",
    "1219" : "ine",
    "1220" : "ĠaĠm",
    "1221" : "Ġdata",
    "1222" : "what",
    "1223" : "back",
    "1224" : "dentif",
    "1225" : "sĠto",
    "1226" : "sĠar",
    "1227" : "itedĠ",
    "1228" : "ark",
    "1229" : "ationĠ",
    "1230" : "prot",
    "1231" : "utom",
    "1232" : "conc",
    "1233" : "mov",
    "1234" : "čĊAn",
    "1235" : "anceĠ",
    "1236" : "friend",
    "1237" : "gener",
    "1238" : "uccess",
    "1239" : "esĠthat",
    "1240" : "let",
    "1241" : "emper",
    "1242" : "ally",
    "1243" : "apt",
    "1244" : "intellig",
    "1245" : "websit",
    "1246" : "mean",
    "1247" : "def",
    "1248" : "ool",
    "1249" : "sčĊ",
    "1250" : "rain",
    "1251" : "alk",
    "1252" : "eĠthe",
    "1253" : "alcul",
    "1254" : "ĠcanĠbeĠ",
    "1255" : "question",
    "1256" : "ustr",
    "1257" : "io",
    "1258" : "liv",
    "1259" : "riv",
    "1260" : "Ġac",
    "1261" : ",Ġb",
    "1262" : "ation.čĊ",
    "1263" : "vers",
    "1264" : "following",
    "1265" : "resourc",
    "1266" : "elect",
    "1267" : "eĠtoĠtheĠ",
    "1268" : "important",
    "1269" : "network",
    "1270" : ")Ġ",
    "1271" : ",ĠasĠ",
    "1272" : "light",
    "1273" : "sĠinĠ",
    "1274" : "Ġsentenc",
    "1275" : "istĠ",
    "1276" : "ros",
    "1277" : "Ġther",
    "1278" : "old",
    "1279" : "edĠbyĠ",
    "1280" : "ĠwouldĠ",
    "1281" : "everĠ",
    "1282" : "čĊCom",
    "1283" : "ocialĠ",
    "1284" : "result",
    "1285" : "likeĠ",
    "1286" : "reduceĠ",
    "1287" : "čĊFind",
    "1288" : "e-",
    "1289" : "fi",
    "1290" : "fiveĠ",
    "1291" : "Ġse",
    "1292" : "reach",
    "1293" : "ĠaĠd",
    "1294" : "exc",
    "1295" : "pric",
    "1296" : "čĊCon",
    "1297" : "sĠsuchĠasĠ",
    "1298" : "mad",
    "1299" : "hous",
    "1300" : "ĠatĠ",
    "1301" : "atch",
    "1302" : "rol",
    "1303" : "pop",
    "1304" : "Ġstat",
    "1305" : "vert",
    "1306" : "antag",
    "1307" : "Ġcons",
    "1308" : "čĊIdentif",
    "1309" : "En",
    "1310" : "bin",
    "1311" : ".ĠG",
    "1312" : "ther",
    "1313" : "ĠbyĠ",
    "1314" : "istor",
    "1315" : ",ĠandĠtheĠ",
    "1316" : "uggest",
    "1317" : "ey",
    "1318" : "war",
    "1319" : "input",
    "1320" : "itĠisĠ",
    "1321" : "ed.čĊ",
    "1322" : "emp",
    "1323" : "point",
    "1324" : "until",
    "1325" : "beaut",
    "1326" : "provideĠ",
    "1327" : "ustomerĠservic",
    "1328" : "decision",
    "1329" : "econom",
    "1330" : "gain",
    "1331" : "fact",
    "1332" : "oic",
    "1333" : "sĠfor",
    "1334" : ".ĠO",
    "1335" : "expl",
    "1336" : "ĠĠĠĠĠĠĠĠ",
    "1337" : "aveĠ",
    "1338" : "famil",
    "1339" : "gl",
    "1340" : "rest",
    "1341" : "rem",
    "1342" : "alt",
    "1343" : "ĠanyĠ",
    "1344" : "lect",
    "1345" : "imal",
    "1346" : "unication",
    "1347" : "ateĠchang",
    "1348" : "market",
    "1349" : "čĊGiven",
    "1350" : "naturalĠ",
    "1351" : "Us",
    "1352" : "hand",
    "1353" : "goodĠ",
    "1354" : "erc",
    "1355" : "čĊĠĠ",
    "1356" : "čĊOn",
    "1357" : "itiesĠ",
    "1358" : "els",
    "1359" : "ecur",
    "1360" : "izedĠ",
    "1361" : "intoĠ",
    "1362" : "been",
    "1363" : "numberĠ",
    "1364" : "whileĠ",
    "1365" : "!čĊ",
    "1366" : "ax",
    "1367" : "kill",
    "1368" : "ness",
    "1369" : "design",
    "1370" : "andĠ",
    "1371" : "es,ĠandĠ",
    "1372" : "ertain",
    "1373" : "Ġdo",
    "1374" : "čĊTheĠs",
    "1375" : "čĊPro",
    "1376" : "involv",
    "1377" : "potentialĠ",
    "1378" : "Joh",
    "1379" : "air",
    "1380" : "eat",
    "1381" : "pic",
    "1382" : "Ġam",
    "1383" : "er.čĊ",
    "1384" : "sĠforĠ",
    "1385" : "ingĠm",
    "1386" : "ush",
    "1387" : "edĠandĠ",
    "1388" : "Ġwill",
    "1389" : "Ġint",
    "1390" : "Ġaccur",
    "1391" : "Ġaccess",
    "1392" : "manag",
    "1393" : "exampl",
    "1394" : "bel",
    "1395" : "echnolog",
    "1396" : "grow",
    "1397" : "Ġtext",
    "1398" : ".ĠL",
    "1399" : "Ġactiv",
    "1400" : "poem",
    "1401" : "prof",
    "1402" : "head",
    "1403" : "phras",
    "1404" : "ength",
    "1405" : "ĠaboutĠtheĠ",
    "1406" : "list",
    "1407" : "veg",
    "1408" : "sĠwith",
    "1409" : "ofĠaĠ",
    "1410" : "edĠto",
    "1411" : "esĠs",
    "1412" : "Ġbet",
    "1413" : "Ġmin",
    "1414" : "feel",
    "1415" : "čĊAĠ",
    "1416" : "object",
    "1417" : "importantĠ",
    "1418" : "US",
    "1419" : "ientĠ",
    "1420" : "rat",
    "1421" : "pain",
    "1422" : "s:Ġ",
    "1423" : "iousĠ",
    "1424" : "rele",
    "1425" : "eĠtr",
    "1426" : "ĠcouldĠ",
    "1427" : "Ġwas",
    "1428" : "not",
    "1429" : "Ġcomm",
    "1430" : "Ġappro",
    "1431" : "čĊExplainĠtheĠ",
    "1432" : "'s",
    "1433" : "fut",
    "1434" : "pet",
    "1435" : "ption",
    "1436" : "čĊ3",
    "1437" : "eseĠ",
    "1438" : "reak",
    "1439" : "le.čĊ",
    "1440" : "opp",
    "1441" : "happ",
    "1442" : "medi",
    "1443" : "lock",
    "1444" : "ledg",
    "1445" : "ĠmoreĠ",
    "1446" : "ission",
    "1447" : "-s",
    "1448" : "100",
    "1449" : "di",
    "1450" : "la",
    "1451" : "both",
    "1452" : "rim",
    "1453" : "histor",
    "1454" : "ed,Ġ",
    "1455" : "stud",
    "1456" : "even",
    "1457" : "prom",
    "1458" : "ĠwithĠ",
    "1459" : "Ġapplication",
    "1460" : "ĠtechnologyĠ",
    "1461" : "followingĠsentenc",
    "1462" : "benefit",
    "1463" : ":čĊĠĠĠĠ",
    "1464" : "hy",
    "1465" : "dep",
    "1466" : "uth",
    "1467" : "eĠin",
    "1468" : "indĠ",
    "1469" : "endĠ",
    "1470" : "ingsĠ",
    "1471" : "edĠs",
    "1472" : "ementĠ",
    "1473" : "Ġword",
    "1474" : "Ġartic",
    "1475" : "qual",
    "1476" : "mos",
    "1477" : "actic",
    "1478" : "čĊGenerateĠa",
    "1479" : "includeĠ",
    "1480" : "ship",
    "1481" : "čĊWhatĠisĠtheĠ",
    "1482" : "a,Ġ",
    "1483" : "ean",
    "1484" : "lic",
    "1485" : "find",
    "1486" : "vent",
    "1487" : "yĠareĠ",
    "1488" : "ubl",
    "1489" : "čĊO",
    "1490" : "Ġaf",
    "1491" : "ĠaĠt",
    "1492" : "ator",
    "1493" : "off",
    "1494" : "ivers",
    "1495" : "eĠad",
    "1496" : "ation,Ġ",
    "1497" : "istic",
    "1498" : "ogn",
    "1499" : "čĊNam",
    "1500" : "eĠtheir",
    "1501" : "explor",
    "1502" : "\"TheĠ",
    "1503" : ")čĊ",
    "1504" : "I'",
    "1505" : "ik",
    "1506" : "byĠtheĠ",
    "1507" : "job",
    "1508" : "night",
    "1509" : "lassif",
    "1510" : "er,Ġ",
    "1511" : "ato",
    "1512" : "att",
    "1513" : "rect",
    "1514" : "ream",
    "1515" : "ofĠc",
    "1516" : "Ġman",
    "1517" : "ĠisĠaĠ",
    "1518" : "emperatur",
    "1519" : "!Ġ",
    "1520" : "'tĠ",
    "1521" : "18",
    "1522" : "ech",
    "1523" : "book",
    "1524" : "writ",
    "1525" : "itiveĠ",
    "1526" : "ĠandĠc",
    "1527" : "rot",
    "1528" : "Ġthan",
    "1529" : "forc",
    "1530" : "Ġdiffer",
    "1531" : "comput",
    "1532" : "processĠ",
    "1533" : "overĠ",
    "1534" : "Ġ=Ġ",
    "1535" : "gen",
    "1536" : "fil",
    "1537" : "oil",
    "1538" : "y,",
    "1539" : "ryĠ",
    "1540" : "putĠ",
    "1541" : "esĠand",
    "1542" : "Ġsom",
    "1543" : "ash",
    "1544" : "Ġautom",
    "1545" : "issu",
    "1546" : "ulti",
    "1547" : "possib",
    "1548" : "ountri",
    "1549" : "ethod",
    "1550" : "UnitedĠ",
    "1551" : "veget",
    "1552" : "Ġfrom",
    "1553" : "ĠforĠ",
    "1554" : "11",
    "1555" : "eh",
    "1556" : "ior",
    "1557" : "non",
    "1558" : "yth",
    "1559" : "deter",
    "1560" : "wayĠ",
    "1561" : "eĠinĠ",
    "1562" : "itt",
    "1563" : "esčĊ",
    "1564" : "ingĠto",
    "1565" : "Ġcup",
    "1566" : "ĠthanĠ",
    "1567" : "Ġmak",
    "1568" : "Ġdis",
    "1569" : "čĊSummar",
    "1570" : ".ĠSheĠ",
    "1571" : "whichĠ",
    "1572" : "čĊCreateĠa",
    "1573" : "čĊWriteĠa",
    "1574" : "Stat",
    "1575" : "meric",
    "1576" : "foc",
    "1577" : "ualĠ",
    "1578" : "yčĊ",
    "1579" : "machineĠlearn",
    "1580" : "sĠm",
    "1581" : "real",
    "1582" : "arth",
    "1583" : "imag",
    "1584" : "igit",
    "1585" : "plant",
    "1586" : "ifĠ",
    "1587" : "pow",
    "1588" : "ĠartificialĠ",
    "1589" : "compan",
    "1590" : "izeĠ",
    "1591" : "ersĠtoĠ",
    "1592" : "ĠasĠtheĠ",
    "1593" : "Ġwhich",
    "1594" : "čĊWriteĠaĠ",
    "1595" : "peopl",
    "1596" : "education",
    "1597" : "ĠS",
    "1598" : "bon",
    "1599" : "bit",
    "1600" : "s:",
    "1601" : "por",
    "1602" : "nec",
    "1603" : "useĠ",
    "1604" : "ider",
    "1605" : "wher",
    "1606" : "whenĠ",
    "1607" : "ustain",
    "1608" : ".ĠAI",
    "1609" : "makingĠ",
    "1610" : "engag",
    "1611" : "eĠthatĠ",
    "1612" : "ponent",
    "1613" : "struction",
    "1614" : "ategor",
    "1615" : "foodĠ",
    "1616" : "uallyĠ",
    "1617" : "onĠaĠ",
    "1618" : "ingčĊ",
    "1619" : "esĠareĠ",
    "1620" : "robot",
    "1621" : "Ġwe",
    "1622" : "ird",
    "1623" : "email",
    "1624" : "agr",
    "1625" : "iffic",
    "1626" : "nov",
    "1627" : "part",
    "1628" : "ĠforĠtheĠ",
    "1629" : "eachĠ",
    "1630" : "renew",
    "1631" : "oper",
    "1632" : "canĠbeĠ",
    "1633" : "pir",
    "1634" : "water",
    "1635" : "inn",
    "1636" : "ert",
    "1637" : "eĠis",
    "1638" : "Ġare",
    "1639" : "aterĠ",
    "1640" : "alĠs",
    "1641" : "alĠc",
    "1642" : "Ġcm",
    "1643" : "aster",
    "1644" : "iment",
    "1645" : "ilityĠ",
    "1646" : "charact",
    "1647" : "chool",
    "1648" : "eĠwas",
    "1649" : ".ĠItĠisĠ",
    "1650" : "recogn",
    "1651" : "Ġstrateg",
    "1652" : "Ġcomputer",
    "1653" : "performanc",
    "1654" : "Ġminut",
    "1655" : "ra",
    "1656" : "noĠ",
    "1657" : "ror",
    "1658" : "lessĠ",
    "1659" : "s.ĠTheĠ",
    "1660" : "inu",
    "1661" : "ĠaĠcom",
    "1662" : "ardĠ",
    "1663" : "ileĠ",
    "1664" : "ĠareĠtheĠ",
    "1665" : "evic",
    "1666" : "withĠaĠ",
    "1667" : "ock",
    "1668" : "redient",
    "1669" : "number",
    "1670" : ".ĠWhat",
    "1671" : "knowledg",
    "1672" : "programm",
    "1673" : "Ġwork",
    "1674" : "function",
    "1675" : "mosph",
    "1676" : "hop",
    "1677" : "rom",
    "1678" : "ten",
    "1679" : "|Ġ",
    "1680" : "rev",
    "1681" : "oup",
    "1682" : "age",
    "1683" : "poon",
    "1684" : "post",
    "1685" : "uniqu",
    "1686" : "few",
    "1687" : "featur",
    "1688" : "beingĠ",
    "1689" : "čĊSheĠ",
    "1690" : "eĠofĠaĠ",
    "1691" : "Ġalso",
    "1692" : ".ĠHeĠ",
    "1693" : "flu",
    "1694" : "mat",
    "1695" : "Earth",
    "1696" : "land",
    "1697" : "ank",
    "1698" : "ather",
    "1699" : "reli",
    "1700" : "room",
    "1701" : "usingĠtheĠ",
    "1702" : "eĠab",
    "1703" : "impac",
    "1704" : "Ġmod",
    "1705" : "emission",
    "1706" : "ĠthatĠisĠ",
    "1707" : "verb",
    "1708" : "optim",
    "1709" : "sĠandĠs",
    "1710" : "ookĠ",
    "1711" : "learningĠ",
    "1712" : "driv",
    "1713" : "sĠcan",
    "1714" : "employ",
    "1715" : "necess",
    "1716" : "12",
    "1717" : "5Ġ",
    "1718" : "50",
    "1719" : "gu",
    "1720" : "run",
    "1721" : "tiv",
    "1722" : "wouldĠ",
    "1723" : "publ",
    "1724" : "eĠfor",
    "1725" : "ont",
    "1726" : "ing,ĠandĠ",
    "1727" : "ofĠs",
    "1728" : "alĠw",
    "1729" : "yĠc",
    "1730" : "roc",
    "1731" : "Ġbe",
    "1732" : "actĠ",
    "1733" : "when",
    "1734" : "alleng",
    "1735" : "čĊCh",
    "1736" : "practic",
    "1737" : "čĊ-Ġ1",
    "1738" : "Ġtech",
    "1739" : "Ġteam",
    "1740" : "eĠwasĠ",
    "1741" : "intoĠtheĠ",
    "1742" : "orderĠtoĠ",
    "1743" : "joy",
    "1744" : "eĠshouldĠ",
    "1745" : "complet",
    "1746" : "uccessful",
    "1747" : "Ar",
    "1748" : "des",
    "1749" : "him",
    "1750" : "jour",
    "1751" : "good",
    "1752" : "jectĠ",
    "1753" : "itch",
    "1754" : "artĠ",
    "1755" : "leg",
    "1756" : "eĠthisĠ",
    "1757" : "ationsĠ",
    "1758" : "ident",
    "1759" : "explain",
    "1760" : "peak",
    "1761" : "outĠtheĠ",
    "1762" : "otion",
    "1763" : "element",
    "1764" : "000",
    "1765" : "energy",
    "1766" : "čĊNameĠ",
    "1767" : "čĊRewriteĠtheĠ",
    "1768" : "intelligenc",
    "1769" : "less",
    "1770" : "sentenc",
    "1771" : "divid",
    "1772" : "Ġav",
    "1773" : "eĠup",
    "1774" : "Ġtest",
    "1775" : "on,Ġ",
    "1776" : "atingĠ",
    "1777" : "ingĠin",
    "1778" : "user",
    "1779" : "represent",
    "1780" : "Ġanimal",
    "1781" : "plat",
    "1782" : "movi",
    "1783" : "ribut",
    "1784" : "beenĠ",
    "1785" : "ociet",
    "1786" : "phys",
    "1787" : "ables",
    "1788" : "betterĠ",
    "1789" : "worldĠ",
    "1790" : "maj",
    "1791" : "firstĠ",
    "1792" : "purpos",
    "1793" : "green",
    "1794" : "čĊIdentifyĠtheĠ",
    "1795" : "UnitedĠStat",
    "1796" : "Ġ-Ġ",
    "1797" : "cal",
    "1798" : "dayĠ",
    "1799" : "vid",
    "1800" : "lution",
    "1801" : "sĠthatĠ",
    "1802" : "ward",
    "1803" : "ĠaĠtim",
    "1804" : "onlin",
    "1805" : "Ġtwo",
    "1806" : "userĠ",
    "1807" : "edĠin",
    "1808" : "uralĠ",
    "1809" : "ationalĠ",
    "1810" : "ument",
    "1811" : "ecision",
    "1812" : "open",
    "1813" : "novel",
    "1814" : "clim",
    "1815" : "Ġtrad",
    "1816" : "Ġteas",
    "1817" : "engine",
    "1818" : "sĠcanĠ",
    "1819" : "oneĠofĠtheĠ",
    "1820" : "risk",
    "1821" : "relation",
    "1822" : "example",
    "1823" : "effectiveĠ",
    "1824" : "differentĠ",
    "1825" : "potential",
    "1826" : "languageĠ",
    "1827" : "ercis",
    "1828" : "+Ġ",
    "1829" : "ek",
    "1830" : "ru",
    "1831" : "ious",
    "1832" : "right",
    "1833" : "ycl",
    "1834" : "čĊ4",
    "1835" : "one",
    "1836" : "es,",
    "1837" : "yĠofĠtheĠ",
    "1838" : "Ġcar",
    "1839" : "lesĠ",
    "1840" : "ingĠfor",
    "1841" : "imm",
    "1842" : "stat",
    "1843" : "urnĠ",
    "1844" : "Ġde",
    "1845" : ":ĠA",
    "1846" : "rip",
    "1847" : "illion",
    "1848" : "research",
    "1849" : "ought",
    "1850" : "ensur",
    "1851" : ".ĠFin",
    "1852" : "followingĠsentenceĠ",
    "1853" : "productĠ",
    "1854" : "alculateĠtheĠ",
    "1855" : "Th",
    "1856" : "ah",
    "1857" : "aur",
    "1858" : "fle",
    "1859" : "ier",
    "1860" : "dist",
    "1861" : "pper",
    "1862" : "eĠm",
    "1863" : "its",
    "1864" : "entr",
    "1865" : "Ġcol",
    "1866" : "eld",
    "1867" : "ett",
    "1868" : "Ġthink",
    "1869" : "chiev",
    "1870" : "und",
    "1871" : "ourag",
    "1872" : "čĊClassif",
    "1873" : "graph",
    "1874" : "ity.čĊ",
    "1875" : "portun",
    "1876" : "čĊTh",
    "1877" : "ĠatĠtheĠ",
    "1878" : "efficient",
    "1879" : "limateĠchang",
    "1880" : "pattern",
    "1881" : "John",
    "1882" : "čĊSummarizeĠtheĠ",
    "1883" : "ĠP",
    "1884" : "Fr",
    "1885" : "co",
    "1886" : "dit",
    "1887" : "ian",
    "1888" : "egr",
    "1889" : "just",
    "1890" : "ibl",
    "1891" : "fectĠ",
    "1892" : "lightĠ",
    "1893" : "business",
    "1894" : "esĠaĠ",
    "1895" : ".ĠN",
    "1896" : ",Ġm",
    "1897" : "yĠisĠ",
    "1898" : "le,Ġ",
    "1899" : "fort",
    "1900" : ".ĠOn",
    "1901" : "ste",
    "1902" : "ationĠandĠ",
    "1903" : "ationĠofĠ",
    "1904" : "Ġwhat",
    "1905" : "ultĠ",
    "1906" : "allĠ",
    "1907" : "Ġaround",
    "1908" : "ally,Ġ",
    "1909" : "heat",
    "1910" : "eful",
    "1911" : "anceĠofĠ",
    "1912" : "web",
    "1913" : "overn",
    "1914" : "čĊHow",
    "1915" : "wellĠasĠ",
    "1916" : "powerful",
    "1917" : "Ġanalyz",
    "1918" : "quickly",
    "1919" : "factor",
    "1920" : "journe",
    "1921" : "bi",
    "1922" : "caus",
    "1923" : "foundĠ",
    "1924" : "čĊ5",
    "1925" : "Ġtre",
    "1926" : "eĠinĠtheĠ",
    "1927" : "sĠor",
    "1928" : "ingĠthem",
    "1929" : "rop",
    "1930" : "artic",
    "1931" : "Ġthen",
    "1932" : "usesĠ",
    "1933" : "useĠofĠ",
    "1934" : "ĠtoĠst",
    "1935" : "exp",
    "1936" : "ession",
    "1937" : "essent",
    "1938" : "option",
    "1939" : "workĠ",
    "1940" : "clus",
    "1941" : "partic",
    "1942" : "prec",
    "1943" : "čĊSuggest",
    "1944" : "dataĠ",
    "1945" : "Ġappl",
    "1946" : "Ġstory",
    "1947" : "usinessĠ",
    "1948" : "requir",
    "1949" : "labor",
    "1950" : "mospher",
    "1951" : "Ġtechn",
    "1952" : "ĠorĠ",
    "1953" : ",ĠaĠ",
    "1954" : ".\"čĊ",
    "1955" : ",000",
    "1956" : "]čĊ",
    "1957" : "dat",
    "1958" : "ll",
    "1959" : "gar",
    "1960" : "cap",
    "1961" : "bestĠ",
    "1962" : "vantag",
    "1963" : "Ġter",
    "1964" : "eĠforĠ",
    "1965" : "onlyĠ",
    "1966" : ",Ġ2",
    "1967" : ",Ġw",
    "1968" : "uss",
    "1969" : "asedĠ",
    "1970" : "edĠaĠ",
    "1971" : "esĠin",
    "1972" : "eĠaĠb",
    "1973" : "esĠinĠ",
    "1974" : "esĠinĠtheĠ",
    "1975" : "ĠtoĠaĠ",
    "1976" : "pot",
    "1977" : "Ġinter",
    "1978" : "conne",
    "1979" : "ept",
    "1980" : "feed",
    "1981" : "opportun",
    "1982" : "oci",
    "1983" : "pepper",
    "1984" : "ĠasĠaĠ",
    "1985" : ".ĠItĠis",
    "1986" : "waysĠ",
    "1987" : "howĠ",
    "1988" : "createĠ",
    "1989" : "communication",
    "1990" : ".ĠTheyĠ",
    "1991" : "languag",
    "1992" : "ouldĠalsoĠ",
    "1993" : "restaur",
    "1994" : "ĠC",
    "1995" : "You",
    "1996" : "den",
    "1997" : "cle",
    "1998" : "det",
    "1999" : "couldĠ",
    "2000" : "gam",
    "2001" : "ry",
    "2002" : "mem",
    "2003" : "ue",
    "2004" : "cient",
    "2005" : "ly,Ġ",
    "2006" : "s,Ġs",
    "2007" : "ĠtheĠfollowingĠ",
    "2008" : "ingĠalgorithm",
    "2009" : "leep",
    "2010" : "ingĠofĠtheĠ",
    "2011" : "forest",
    "2012" : "edĠinĠtheĠ",
    "2013" : "imple",
    "2014" : "eĠabl",
    "2015" : "express",
    "2016" : "Ġtopic",
    "2017" : "peop",
    "2018" : "haveĠaĠ",
    "2019" : "group",
    "2020" : "avor",
    "2021" : "čĊDesign",
    "2022" : "Ġaddition",
    "2023" : "rectĠ",
    "2024" : ".ĠHow",
    "2025" : ".ĠWh",
    "2026" : "alyz",
    "2027" : "aterial",
    "2028" : "gether",
    "2029" : "čĊGenerateĠaĠlistĠofĠ",
    "2030" : "prediction",
    "2031" : "čĊConstruct",
    "2032" : "powerĠ",
    "2033" : "platform",
    "2034" : "?Ġ",
    "2035" : "An",
    "2036" : "goĠ",
    "2037" : "pi",
    "2038" : "ium",
    "2039" : "se",
    "2040" : "meas",
    "2041" : "ugh",
    "2042" : "digit",
    "2043" : "neverĠ",
    "2044" : "anan",
    "2045" : "ary",
    "2046" : ",Ġwhich",
    "2047" : "imp",
    "2048" : "ingredient",
    "2049" : "urther",
    "2050" : "Ġinclud",
    "2051" : "pri",
    "2052" : "expect",
    "2053" : "prim",
    "2054" : "befor",
    "2055" : "escription",
    "2056" : "Ġatt",
    "2057" : "Int",
    "2058" : "listĠ",
    "2059" : "financ",
    "2060" : "return",
    "2061" : "ĠshouldĠbeĠ",
    "2062" : "personal",
    "2063" : "max",
    "2064" : "becom",
    "2065" : "elf-",
    "2066" : "iox",
    "2067" : "čĊFindĠtheĠ",
    "2068" : "popular",
    "2069" : "determin",
    "2070" : "He",
    "2071" : "SheĠ",
    "2072" : "a.čĊ",
    "2073" : "cat",
    "2074" : "doĠ",
    "2075" : "hor",
    "2076" : "flow",
    "2077" : "e.ĠTheĠ",
    "2078" : "e?čĊ",
    "2079" : "lay",
    "2080" : "describ",
    "2081" : "care",
    "2082" : "ueĠ",
    "2083" : "čĊ\"",
    "2084" : "eĠit",
    "2085" : "ĠsheĠ",
    "2086" : "ingĠaĠs",
    "2087" : "ĠandĠw",
    "2088" : "Ġcl",
    "2089" : "error",
    "2090" : "roduc",
    "2091" : "Ġachiev",
    "2092" : "irc",
    "2093" : "project",
    "2094" : "ĠthatĠtheĠ",
    "2095" : "emotion",
    "2096" : "classif",
    "2097" : "avel",
    "2098" : "ies.čĊ",
    "2099" : "astic",
    "2100" : "ignific",
    "2101" : "every",
    "2102" : "Ġtechnology",
    "2103" : "ĠtypicallyĠ",
    "2104" : "eĠanĠexampl",
    "2105" : "Ġassoci",
    "2106" : "phraseĠ",
    "2107" : "čĊProvid",
    "2108" : "ĠM",
    "2109" : "-basedĠ",
    "2110" : "cur",
    "2111" : "fre",
    "2112" : "food",
    "2113" : "break",
    "2114" : "atis",
    "2115" : "ĠtextĠ",
    "2116" : "onlineĠ",
    "2117" : "ĠtoĠc",
    "2118" : "Ġtemperatur",
    "2119" : "ingĠinĠ",
    "2120" : "forĠs",
    "2121" : "ilyĠ",
    "2122" : "impl",
    "2123" : "Ġbr",
    "2124" : "iful",
    "2125" : "exercis",
    "2126" : "riang",
    "2127" : "weet",
    "2128" : "čĊIĠ",
    "2129" : "weenĠ",
    "2130" : "park",
    "2131" : "Ġapp",
    "2132" : "election",
    "2133" : "ableĠs",
    "2134" : "ountain",
    "2135" : "healthyĠ",
    "2136" : "findĠ",
    "2137" : "Ġcharact",
    "2138" : "goal",
    "2139" : "returnĠ",
    "2140" : "hasĠaĠ",
    "2141" : "iredĠ",
    "2142" : "color",
    "2143" : "meaning",
    "2144" : "impactĠ",
    "2145" : "200",
    "2146" : "beĠs",
    "2147" : "ox",
    "2148" : "etĠofĠ",
    "2149" : "tt",
    "2150" : "getĠ",
    "2151" : "s.ĠčĊ",
    "2152" : "voic",
    "2153" : "govern",
    "2154" : "eĠg",
    "2155" : "ing,",
    "2156" : "Ġaud",
    "2157" : ",Ġ3",
    "2158" : "ingĠanĠ",
    "2159" : "offer",
    "2160" : "ildr",
    "2161" : "Ġway",
    "2162" : "Ġincreas",
    "2163" : "print",
    "2164" : "whereĠ",
    "2165" : "contain",
    "2166" : "eĠandĠs",
    "2167" : "app",
    "2168" : "ityĠandĠ",
    "2169" : "Ġtrain",
    "2170" : "individ",
    "2171" : "ostĠ",
    "2172" : "manyĠ",
    "2173" : "čĊEdit",
    "2174" : "ĠaboutĠaĠ",
    "2175" : "keep",
    "2176" : "polit",
    "2177" : "efficientĠ",
    "2178" : "predict",
    "2179" : "respons",
    "2180" : "regular",
    "2181" : ",ĠbutĠ",
    "2182" : "Ġbetween",
    "2183" : "promot",
    "2184" : "ifficult",
    "2185" : "renewableĠ",
    "2186" : "fluenc",
    "2187" : "Ġmodel",
    "2188" : "engineer",
    "2189" : "relationship",
    "2190" : "\"Ġ",
    "2191" : "15",
    "2192" : "cr",
    "2193" : "don",
    "2194" : "ix",
    "2195" : "dem",
    "2196" : "e,Ġs",
    "2197" : "butĠ",
    "2198" : "uation",
    "2199" : "rans",
    "2200" : "Ġair",
    "2201" : "esh",
    "2202" : ".čĊ2",
    "2203" : "ict",
    "2204" : "enable",
    "2205" : "aseĠ",
    "2206" : "entlyĠ",
    "2207" : "chem",
    "2208" : "eĠap",
    "2209" : "erĠisĠ",
    "2210" : "ĠthreeĠ",
    "2211" : "step",
    "2212" : "ĠmyĠ",
    "2213" : "edĠbyĠtheĠ",
    "2214" : "ampa",
    "2215" : "Ġbusiness",
    "2216" : "čĊTheĠt",
    "2217" : "pervis",
    "2218" : "feature",
    "2219" : "mark",
    "2220" : "oseĠ",
    "2221" : "dress",
    "2222" : "yĠsourc",
    "2223" : "equenc",
    "2224" : "oftw",
    "2225" : "becaus",
    "2226" : "wordĠ\"",
    "2227" : "Ġstudent",
    "2228" : "Ġtechniqu",
    "2229" : "ampaign",
    "2230" : "ĠE",
    "2231" : "ĠW",
    "2232" : "),Ġ",
    "2233" : "ection",
    "2234" : "pt",
    "2235" : "e,ĠtheĠ",
    "2236" : "rad",
    "2237" : "uct",
    "2238" : "method",
    "2239" : ".ĠčĊ-Ġ",
    "2240" : "ely",
    "2241" : "ingĠofĠ",
    "2242" : "ingĠisĠ",
    "2243" : "ĠcanĠb",
    "2244" : "iver",
    "2245" : "chain",
    "2246" : "Ġskill",
    "2247" : "proper",
    "2248" : "planĠ",
    "2249" : "Ġbel",
    "2250" : "ulation",
    "2251" : "Ġart",
    "2252" : "ĠinĠaĠ",
    "2253" : "Ġstep",
    "2254" : "grad",
    "2255" : "upport",
    "2256" : "ground",
    "2257" : "achin",
    "2258" : "Ġcomple",
    "2259" : "čĊWh",
    "2260" : "Ġadd",
    "2261" : "rece",
    "2262" : "hereĠ",
    "2263" : "čĊThisĠ",
    "2264" : "wordsĠ",
    "2265" : "often",
    "2266" : "effectiv",
    "2267" : "Ġadvantag",
    "2268" : ".ĠThey",
    "2269" : "organization",
    "2270" : "Ġanalys",
    "2271" : "Ġinto",
    "2272" : "growth",
    "2273" : "esĠsuchĠasĠ",
    "2274" : "Ġapproach",
    "2275" : "alĠwarm",
    "2276" : "ĠassociatedĠ",
    "2277" : "1:Ġ",
    "2278" : "dom",
    "2279" : "fig",
    "2280" : "yingĠ",
    "2281" : "sentenceĠ",
    "2282" : "nature",
    "2283" : "eĠb",
    "2284" : "Ġtom",
    "2285" : "ats",
    "2286" : "Ġany",
    "2287" : "offe",
    "2288" : "čĊdef",
    "2289" : "atelyĠ",
    "2290" : "innov",
    "2291" : "esĠof",
    "2292" : "therĠ",
    "2293" : "Ġtool",
    "2294" : "util",
    "2295" : "eĠsystem",
    "2296" : "netĠ",
    "2297" : "abilityĠ",
    "2298" : "outcom",
    "2299" : "paragr",
    "2300" : "ure.čĊ",
    "2301" : "helpĠtoĠ",
    "2302" : "oss",
    "2303" : "ĠtakeĠ",
    "2304" : "media",
    "2305" : "increasedĠ",
    "2306" : "key",
    "2307" : "correct",
    "2308" : "build",
    "2309" : "importantĠtoĠ",
    "2310" : "ĠwillĠ",
    "2311" : "beautiful",
    "2312" : "public",
    "2313" : "Ġtradition",
    "2314" : "čĊClassifyĠtheĠ",
    "2315" : "eĠableĠtoĠ",
    "2316" : "impact",
    "2317" : "ildren",
    "2318" : "paragraph",
    "2319" : "ĠG",
    "2320" : "ĠO",
    "2321" : "2Ġ",
    "2322" : "Americ",
    "2323" : "earn",
    "2324" : "pit",
    "2325" : "ron",
    "2326" : "uro",
    "2327" : "uel",
    "2328" : "down",
    "2329" : "onĠs",
    "2330" : "itor",
    "2331" : "itleĠ",
    "2332" : "essĠofĠ",
    "2333" : "arr",
    "2334" : "Ġcustomer",
    "2335" : "ĠthereĠ",
    "2336" : "ĠtheseĠ",
    "2337" : "unch",
    "2338" : "Ġarr",
    "2339" : "ĠareĠs",
    "2340" : "Ġstart",
    "2341" : "mod",
    "2342" : "most",
    "2343" : "fruit",
    "2344" : "Ġdiox",
    "2345" : ".ĠAn",
    "2346" : "čĊAr",
    "2347" : "motiv",
    "2348" : "Ġabl",
    "2349" : "industr",
    "2350" : "uchĠas",
    "2351" : "better",
    "2352" : "givenĠs",
    "2353" : "humanĠ",
    "2354" : "areaĠ",
    "2355" : "mainĠ",
    "2356" : "consum",
    "2357" : "known",
    "2358" : "different",
    "2359" : "Ġworl",
    "2360" : "Ġtransport",
    "2361" : "concep",
    "2362" : "čĊCompar",
    "2363" : "čĊAnalyz",
    "2364" : "numberĠofĠ",
    "2365" : "focusĠ",
    "2366" : "bonĠdiox",
    "2367" : "\",Ġ",
    "2368" : "'.čĊ",
    "2369" : "e:",
    "2370" : "myĠ",
    "2371" : "mus",
    "2372" : "hot",
    "2373" : "found",
    "2374" : "y,ĠtheĠ",
    "2375" : "lastĠ",
    "2376" : "length",
    "2377" : "devic",
    "2378" : "čĊ-",
    "2379" : "ĠaĠcon",
    "2380" : "sĠorĠ",
    "2381" : "ingĠt",
    "2382" : "itiv",
    "2383" : "redĠ",
    "2384" : "itud",
    "2385" : "lef",
    "2386" : "recomm",
    "2387" : "eĠtim",
    "2388" : "Ġthis",
    "2389" : "ivil",
    "2390" : "Ġcaus",
    "2391" : "eĠtask",
    "2392" : "oldĠ",
    "2393" : "edĠinĠ",
    "2394" : "eĠacc",
    "2395" : "edĠby",
    "2396" : ":Ġ\"",
    "2397" : "priv",
    "2398" : "princ",
    "2399" : "content",
    "2400" : "beg",
    "2401" : "eĠcanĠ",
    "2402" : "havior",
    "2403" : "beĠusedĠtoĠ",
    "2404" : "yster",
    "2405" : "escribeĠ",
    "2406" : "positiveĠ",
    "2407" : "likeĠaĠ",
    "2408" : "ĠwhoĠ",
    "2409" : "link",
    "2410" : "improveĠ",
    "2411" : "improvedĠ",
    "2412" : "Ġpol",
    "2413" : "productiv",
    "2414" : "keyĠ",
    "2415" : "related",
    "2416" : "consider",
    "2417" : "polic",
    "2418" : "mone",
    "2419" : "require",
    "2420" : "čĊMak",
    "2421" : "efficienc",
    "2422" : "čĊList",
    "2423" : "willĠ",
    "2424" : "field",
    "2425" : "echnologyĠ",
    "2426" : "paint",
    "2427" : "ĠdifferentĠ",
    "2428" : "garlic",
    "2429" : "pervisedĠ",
    "2430" : ").čĊ",
    "2431" : "Con",
    "2432" : "ItĠ",
    "2433" : "What",
    "2434" : "gent",
    "2435" : "lat",
    "2436" : "rac",
    "2437" : "rup",
    "2438" : "wind",
    "2439" : "law",
    "2440" : "self",
    "2441" : "erĠandĠ",
    "2442" : "inition",
    "2443" : "sĠfrom",
    "2444" : ".čĊ3",
    "2445" : ",ĠB",
    "2446" : "arkĠ",
    "2447" : "Ġsmall",
    "2448" : "ĠtoĠmak",
    "2449" : "urv",
    "2450" : "eĠaĠm",
    "2451" : "Ġwrit",
    "2452" : "usuallyĠ",
    "2453" : "Ġins",
    "2454" : "ĠdoĠ",
    "2455" : "eĠanyĠ",
    "2456" : ":ĠTheĠ",
    "2457" : "needĠtoĠ",
    "2458" : "moder",
    "2459" : "oos",
    "2460" : "ownĠ",
    "2461" : "peac",
    "2462" : "čĊCalculateĠtheĠ",
    "2463" : "peech",
    "2464" : "Ġcompan",
    "2465" : "reason",
    "2466" : "Ġshow",
    "2467" : ".ĠčĊ2",
    "2468" : "ĠaĠch",
    "2469" : "ethingĠ",
    "2470" : "production",
    "2471" : "enceĠbetween",
    "2472" : "first",
    "2473" : "variet",
    "2474" : "____",
    "2475" : "globalĠ",
    "2476" : "madeĠ",
    "2477" : "Engl",
    "2478" : "relev",
    "2479" : "eĠtheirĠ",
    "2480" : "ehic",
    "2481" : "portĠ",
    "2482" : "revolution",
    "2483" : "Franc",
    "2484" : "Ġor",
    "2485" : "Ġit",
    "2486" : "21",
    "2487" : "ĠhasĠ",
    "2488" : "Can",
    "2489" : "Com",
    "2490" : "Re",
    "2491" : "dro",
    "2492" : "iou",
    "2493" : "cod",
    "2494" : "jun",
    "2495" : "canĠb",
    "2496" : "to",
    "2497" : "mag",
    "2498" : "customer",
    "2499" : "past",
    "2500" : "customerĠ",
    "2501" : "nextĠ",
    "2502" : "warm",
    "2503" : "Ġaction",
    "2504" : "oryĠ",
    "2505" : "Ġsp",
    "2506" : "ali",
    "2507" : "ingĠand",
    "2508" : ",Ġit",
    "2509" : "isĠanĠ",
    "2510" : "Ġthre",
    "2511" : "enjoy",
    "2512" : ".ĠUs",
    "2513" : "eĠaĠd",
    "2514" : "esĠnotĠ",
    "2515" : "habit",
    "2516" : "veryĠ",
    "2517" : "ustri",
    "2518" : "upĠwith",
    "2519" : "ity,Ġ",
    "2520" : "eĠcan",
    "2521" : "recip",
    "2522" : "everyĠ",
    "2523" : "Ġliv",
    "2524" : "etherĠ",
    "2525" : "orderĠ",
    "2526" : "importanceĠofĠ",
    "2527" : "atherĠ",
    "2528" : "equal",
    "2529" : ".ĠFurther",
    "2530" : "ĠtypeĠofĠ",
    "2531" : ".ĠEn",
    "2532" : "maz",
    "2533" : "oftwar",
    "2534" : "makeĠit",
    "2535" : "quicklyĠ",
    "2536" : "--------",
    "2537" : "responsib",
    "2538" : "excell",
    "2539" : "economic",
    "2540" : "student",
    "2541" : "lockchain",
    "2542" : "I'mĠ",
    "2543" : "essentialĠ",
    "2544" : "Intellig",
    "2545" : "Health",
    "2546" : "ĠB",
    "2547" : "ĠT",
    "2548" : "4,Ġ",
    "2549" : "De",
    "2550" : "Ex",
    "2551" : "):čĊĠĠĠĠ",
    "2552" : "ez",
    "2553" : "cre",
    "2554" : "eith",
    "2555" : "generat",
    "2556" : "yn",
    "2557" : "sĠaĠ",
    "2558" : "vehic",
    "2559" : "čĊV",
    "2560" : "Ġsu",
    "2561" : "ref",
    "2562" : "oud",
    "2563" : "es.ĠTheĠ",
    "2564" : "alĠandĠ",
    "2565" : "lear",
    "2566" : "ctor",
    "2567" : "ĠtoĠbeĠ",
    "2568" : "uringĠ",
    "2569" : "emb",
    "2570" : "ilĠf",
    "2571" : "thes",
    "2572" : "ilities",
    "2573" : "ember",
    "2574" : "ideas",
    "2575" : "acy",
    "2576" : "ump",
    "2577" : "Ġday",
    "2578" : "ĠandĠaĠ",
    "2579" : "Ġdesign",
    "2580" : "who",
    "2581" : "moon",
    "2582" : "eĠsentence.čĊ",
    "2583" : "duction",
    "2584" : "inĠtheĠs",
    "2585" : ".ĠAf",
    "2586" : "Ġask",
    "2587" : "čĊSt",
    "2588" : "ure,Ġ",
    "2589" : "Ġshort",
    "2590" : "recentĠ",
    "2591" : "uck",
    "2592" : "ĠallĠ",
    "2593" : "listĠof",
    "2594" : "equation",
    "2595" : "planet",
    "2596" : "Ġadvanc",
    "2597" : "urrentĠ",
    "2598" : "Chin",
    "2599" : "Ġscienc",
    "2600" : "aptop",
    "2601" : "ross",
    "2602" : "vertis",
    "2603" : "ocialĠmedia",
    "2604" : "naturalĠlanguageĠ",
    "2605" : "benefitsĠofĠ",
    "2606" : "qualityĠ",
    "2607" : "ĠartificialĠintelligenc",
    "2608" : "character",
    "2609" : "uralĠnetwork",
    "2610" : "Ġteaspoon",
    "2611" : "implement",
    "2612" : "čĊAnalyzeĠtheĠ",
    "2613" : "ossilĠf",
    "2614" : ".ĠFurthermor",
    "2615" : "ĠR",
    "2616" : "3Ġ",
    "2617" : "90",
    "2618" : "=\"",
    "2619" : "Ad",
    "2620" : "?ĠčĊ",
    "2621" : "aj",
    "2622" : "hol",
    "2623" : "e'sĠ",
    "2624" : "mel",
    "2625" : "odĠ",
    "2626" : "mess",
    "2627" : "noun",
    "2628" : "dog",
    "2629" : "hard",
    "2630" : "s,Ġand",
    "2631" : "path",
    "2632" : "rightĠ",
    "2633" : "ceĠup",
    "2634" : "ually",
    "2635" : "ynon",
    "2636" : "čĊJ",
    "2637" : "ond",
    "2638" : ",Ġ1",
    "2639" : "ingĠf",
    "2640" : "used",
    "2641" : "ĠthenĠ",
    "2642" : "arket",
    "2643" : "ildĠ",
    "2644" : "onĠaĠtim",
    "2645" : "eĠaĠc",
    "2646" : "ĠclimateĠchang",
    "2647" : "exist",
    "2648" : "ificĠ",
    "2649" : "challeng",
    "2650" : "abas",
    "2651" : "ours",
    "2652" : "e.čĊTheĠ",
    "2653" : "quant",
    "2654" : "plastic",
    "2655" : "Ġbillion",
    "2656" : "withoutĠ",
    "2657" : "verag",
    "2658" : "izingĠ",
    "2659" : "Ġthey",
    "2660" : "čĊAnĠ",
    "2661" : "ĠtheyĠareĠ",
    "2662" : "ocean",
    "2663" : "egg",
    "2664" : "eĠofĠs",
    "2665" : "poss",
    "2666" : ".ĠčĊ3",
    "2667" : "Ġappe",
    "2668" : "full",
    "2669" : "Ġtime.čĊ",
    "2670" : "Ġaccount",
    "2671" : "sĠcanĠbeĠ",
    "2672" : "ĠofĠaĠ",
    "2673" : "energyĠsourc",
    "2674" : "betweenĠ",
    "2675" : "ibility",
    "2676" : "extrem",
    "2677" : "meet",
    "2678" : "commun",
    "2679" : "eĠthem",
    "2680" : "riskĠ",
    "2681" : "maintain",
    "2682" : "leadĠtoĠ",
    "2683" : "largeĠ",
    "2684" : "xĠ=Ġ",
    "2685" : "door",
    "2686" : "variousĠ",
    "2687" : "discover",
    "2688" : "identifyĠ",
    "2689" : "tificialĠIntellig",
    "2690" : "protect",
    "2691" : "roll",
    "2692" : "ustomerĠserviceĠ",
    "2693" : "rimin",
    "2694" : "profession",
    "2695" : "Ġappropri",
    "2696" : "ittleĠ",
    "2697" : "Ġwebsit",
    "2698" : "climateĠchang",
    "2699" : "clusion",
    "2700" : "connect",
    "2701" : "ceĠuponĠaĠtim",
    "2702" : "/2",
    "2703" : "4Ġ",
    "2704" : "5,Ġ",
    "2705" : ",Ġallow",
    "2706" : "PT",
    "2707" : "ea",
    "2708" : "blog",
    "2709" : "so",
    "2710" : "met",
    "2711" : "merĠ",
    "2712" : "perĠ",
    "2713" : "ww",
    "2714" : "hip",
    "2715" : "want",
    "2716" : "y,ĠandĠ",
    "2717" : "s?čĊ",
    "2718" : "youn",
    "2719" : "swer",
    "2720" : "s,ĠsuchĠasĠ",
    "2721" : "walk",
    "2722" : "Ġag",
    "2723" : "erg",
    "2724" : "inĠs",
    "2725" : "Ġtens",
    "2726" : "sĠwithĠ",
    "2727" : "it.čĊ",
    "2728" : ",ĠS",
    "2729" : "Ġsid",
    "2730" : "yĠof",
    "2731" : "Ġsolution",
    "2732" : "assĠ",
    "2733" : "Ġagain",
    "2734" : "Ġauth",
    "2735" : "leav",
    "2736" : "eĠtyp",
    "2737" : "eĠtwoĠ",
    "2738" : "urg",
    "2739" : "edĠtoĠtheĠ",
    "2740" : "Ġcountri",
    "2741" : "ift",
    "2742" : "Ġbec",
    "2743" : "ulat",
    "2744" : "Ġinv",
    "2745" : "umĠ",
    "2746" : "owl",
    "2747" : "oot",
    "2748" : "anger",
    "2749" : "čĊComeĠ",
    "2750" : "istak",
    "2751" : "illĠ",
    "2752" : "čĊItĠ",
    "2753" : "ies,Ġ",
    "2754" : "iesĠandĠ",
    "2755" : "egre",
    "2756" : "ingĠsystem",
    "2757" : "ĠaĠsetĠofĠ",
    "2758" : "ly.čĊ",
    "2759" : "erveĠ",
    "2760" : "oughtĠ",
    "2761" : "ĠtimeĠ",
    "2762" : "ĠofĠs",
    "2763" : "Ġstrong",
    "2764" : "name",
    "2765" : "medicalĠ",
    "2766" : "ĠallĠtheĠ",
    "2767" : "increaseĠ",
    "2768" : "Ġstruct",
    "2769" : "experiment",
    "2770" : "ĠallowsĠ",
    "2771" : "personalĠ",
    "2772" : "day.čĊ",
    "2773" : "econd",
    "2774" : "peciesĠ",
    "2775" : "pollution",
    "2776" : ".ĠAdditionally,ĠtheĠ",
    "2777" : "čĊListĠ",
    "2778" : "generateĠ",
    "2779" : "versation",
    "2780" : "ĠcanĠbeĠusedĠtoĠ",
    "2781" : "Ġsentences.čĊ",
    "2782" : "electric",
    "2783" : "ocialĠmedi",
    "2784" : "non-",
    "2785" : "possibleĠ",
    "2786" : "programmingĠ",
    "2787" : "Ġavail",
    "2788" : "major",
    "2789" : "Ġterm",
    "2790" : "feedback",
    "2791" : "piec",
    "2792" : "maxim",
    "2793" : "atisf",
    "2794" : "English",
    "2795" : "ynonym",
    "2796" : "young",
    "2797" : "ocialĠmediaĠ",
    "2798" : "ĠL",
    "2799" : "'t",
    "2800" : "0.",
    "2801" : "Al",
    "2802" : "Im",
    "2803" : "Par",
    "2804" : "cu",
    "2805" : "eb",
    "2806" : "eo",
    "2807" : "bol",
    "2808" : "har",
    "2809" : "mal",
    "2810" : "sk",
    "2811" : "count",
    "2812" : "auc",
    "2813" : "pun",
    "2814" : "s.ĠA",
    "2815" : "sĠtoĠtheĠ",
    "2816" : "justĠ",
    "2817" : "multi",
    "2818" : "inion",
    "2819" : "ordĠ",
    "2820" : "sĠbyĠ",
    "2821" : ",ĠI",
    "2822" : ",Ġc",
    "2823" : "sĠhaveĠ",
    "2824" : "entur",
    "2825" : "letĠ",
    "2826" : "chas",
    "2827" : "ellow",
    "2828" : "usingĠaĠ",
    "2829" : "progr",
    "2830" : "ettingĠ",
    "2831" : "eĠaccess",
    "2832" : "agon",
    "2833" : "nod",
    "2834" : "ĠthatĠs",
    "2835" : "Ġstand",
    "2836" : "quer",
    "2837" : "neg",
    "2838" : "Ġtogether",
    "2839" : "heav",
    "2840" : "fresh",
    "2841" : "endingĠ",
    "2842" : "outputĠ",
    "2843" : "Ġability",
    "2844" : "pread",
    "2845" : "eĠdecision",
    "2846" : "bright",
    "2847" : "objectĠ",
    "2848" : "viol",
    "2849" : "čĊTrans",
    "2850" : "ibleĠ",
    "2851" : "reduceĠtheĠ",
    "2852" : "ĠforĠaĠ",
    "2853" : "ĠtoĠsolv",
    "2854" : "common",
    "2855" : "grammar",
    "2856" : "Ġchang",
    "2857" : "differenc",
    "2858" : "environmentalĠ",
    "2859" : "epĠlearn",
    "2860" : "ideasĠ",
    "2861" : "alsoĠ",
    "2862" : "botĠ",
    "2863" : "canĠalsoĠ",
    "2864" : "globalĠwarm",
    "2865" : "livingĠ",
    "2866" : ",ĠasĠwellĠasĠ",
    "2867" : "čĊConvert",
    "2868" : "familyĠ",
    "2869" : "elsi",
    "2870" : "houseĠg",
    "2871" : "involvesĠ",
    "2872" : "releas",
    "2873" : "Ġcommunication",
    "2874" : "employe",
    "2875" : ".ĠFinally,Ġ",
    "2876" : "čĊEditĠtheĠ",
    "2877" : "individual",
    "2878" : "2:Ġ",
    "2879" : "Ġyear",
    "2880" : "\"ĠbyĠ",
    "2881" : "az",
    "2882" : "bre",
    "2883" : "fall",
    "2884" : "cover",
    "2885" : "mil",
    "2886" : "eoneĠ",
    "2887" : "pag",
    "2888" : "much",
    "2889" : "weĠ",
    "2890" : "rap",
    "2891" : "rateĠ",
    "2892" : "|čĊ",
    "2893" : "s.ĠItĠ",
    "2894" : "Euro",
    "2895" : "fair",
    "2896" : "bird",
    "2897" : "sĠ(",
    "2898" : "inat",
    "2899" : "iness",
    "2900" : "sĠon",
    "2901" : "atic",
    "2902" : "Ġsk",
    "2903" : "anch",
    "2904" : "ateĠandĠ",
    "2905" : "iteĠ",
    "2906" : "iter",
    "2907" : "sĠfromĠtheĠ",
    "2908" : "outh",
    "2909" : "isĠa",
    "2910" : "ingĠup",
    "2911" : "forĠc",
    "2912" : "Ġtables",
    "2913" : "loth",
    "2914" : "implication",
    "2915" : "irst",
    "2916" : "ĠtoĠtheĠs",
    "2917" : "ĠmayĠ",
    "2918" : "ĠaroundĠ",
    "2919" : "eĠsom",
    "2920" : "s,Ġinclud",
    "2921" : "ĠalwaysĠ",
    "2922" : "istant",
    "2923" : "ummerĠ",
    "2924" : "class",
    "2925" : "čĊCategor",
    "2926" : "ment.čĊ",
    "2927" : "Ġtrend",
    "2928" : "eĠday",
    "2929" : "lyĠs",
    "2930" : "ĠtoĠtheĠstor",
    "2931" : "workplac",
    "2932" : "wayĠtoĠ",
    "2933" : "čĊRe",
    "2934" : "interest",
    "2935" : "jectiv",
    "2936" : "rown",
    "2937" : "life",
    "2938" : "invest",
    "2939" : "becomeĠ",
    "2940" : "ĠanĠincreas",
    "2941" : "betweenĠtheĠ",
    "2942" : "rench",
    "2943" : "loyalt",
    "2944" : "patient",
    "2945" : "Ġthere",
    "2946" : "100,000",
    "2947" : "ĠmanyĠ",
    "2948" : "ustainableĠ",
    "2949" : "recognition",
    "2950" : "flex",
    "2951" : "greenhouseĠg",
    "2952" : "requireĠ",
    "2953" : "restaurant",
    "2954" : "riangleĠ",
    "2955" : "recommend",
    "2956" : "eĠaccur",
    "2957" : "ĠY",
    "2958" : "(x",
    "2959" : "16",
    "2960" : "17",
    "2961" : "40",
    "2962" : "-ter",
    "2963" : ";Ġ",
    "2964" : "It",
    "2965" : "Great",
    "2966" : "Mon",
    "2967" : "big",
    "2968" : "far",
    "2969" : "eam",
    "2970" : "lar",
    "2971" : "mom",
    "2972" : "otĠ",
    "2973" : "iaĠ",
    "2974" : "cook",
    "2975" : "iallyĠ",
    "2976" : "top",
    "2977" : "vol",
    "2978" : "dark",
    "2979" : "yog",
    "2980" : "uild",
    "2981" : "čĊĠ",
    "2982" : "enn",
    "2983" : "Ġtreat",
    "2984" : "erĠc",
    "2985" : "Ġanim",
    "2986" : "ĠsoĠ",
    "2987" : "es,Ġs",
    "2988" : "itiz",
    "2989" : "oudĠ",
    "2990" : "Ġthes",
    "2991" : "Ġcod",
    "2992" : "instruction",
    "2993" : "edg",
    "2994" : "review",
    "2995" : "atmospher",
    "2996" : "entiment",
    "2997" : "utput",
    "2998" : "ecure",
    "2999" : ":ĠH",
    "3000" : "ay.čĊ",
    "3001" : "leĠofĠ",
    "3002" : ".ĠIm",
    "3003" : "mooth",
    "3004" : "ĠandĠaccur",
    "3005" : "dueĠtoĠ",
    "3006" : "combin",
    "3007" : "hatbot",
    "3008" : "neuralĠnetwork",
    "3009" : "čĊIt",
    "3010" : "ocument",
    "3011" : "Ġcomponent",
    "3012" : "Ġcontent",
    "3013" : "moreĠs",
    "3014" : "eĠdis",
    "3015" : "phas",
    "3016" : "ferenc",
    "3017" : "yourĠb",
    "3018" : "position",
    "3019" : "čĊ10",
    "3020" : "providingĠ",
    "3021" : "Ġaddress",
    "3022" : "ĠwithĠtheĠ",
    "3023" : "fulĠ",
    "3024" : "Ġadvertis",
    "3025" : "overĠtheĠ",
    "3026" : "Ġaccord",
    "3027" : "likel",
    "3028" : "čĊĠĠĠĠĠĠĠĠ",
    "3029" : ".ĠCom",
    "3030" : "Ind",
    "3031" : "athem",
    "3032" : "otherĠhand",
    "3033" : "contr",
    "3034" : "ularĠ",
    "3035" : "oftenĠ",
    "3036" : ".ĠEx",
    "3037" : "differenceĠbetween",
    "3038" : "basedĠon",
    "3039" : "basedĠonĠtheĠ",
    "3040" : "paper",
    "3041" : "complex",
    "3042" : "čĊRewriteĠtheĠs",
    "3043" : "abilityĠtoĠ",
    "3044" : "intelligenceĠ",
    "3045" : "JohnĠ",
    "3046" : "below",
    "3047" : "Ġactivities",
    "3048" : "čĊOnceĠuponĠaĠtim",
    "3049" : "followingĠsentenceĠtoĠ",
    "3050" : "laugh",
    "3051" : "people",
    "3052" : "oftwareĠ",
    "3053" : "ĠableĠtoĠ",
    "3054" : "modern",
    "3055" : "responsibleĠ",
    "3056" : ".ĠAfter",
    "3057" : "ĠN",
    "3058" : "Ġk",
    "3059" : "ĠčĊ-Ġ",
    "3060" : "1,Ġ",
    "3061" : "Med",
    "3062" : "New",
    "3063" : "ai",
    "3064" : "cent",
    "3065" : "ball",
    "3066" : "fur",
    "3067" : "gle",
    "3068" : "bod",
    "3069" : "wid",
    "3070" : "nack",
    "3071" : "backĠ",
    "3072" : "vide",
    "3073" : "Learn",
    "3074" : "sĠisĠ",
    "3075" : "Ġso",
    "3076" : "orig",
    "3077" : ".čĊA",
    "3078" : "eĠforĠaĠ",
    "3079" : "ester",
    "3080" : "esĠthatĠ",
    "3081" : "report",
    "3082" : "Ġsign",
    "3083" : "is,Ġ",
    "3084" : "oman",
    "3085" : "ickĠ",
    "3086" : "ed,",
    "3087" : "remov",
    "3088" : "čĊJohn",
    "3089" : "Ġsecur",
    "3090" : "edĠasĠ",
    "3091" : "eĠam",
    "3092" : "edĠwith",
    "3093" : ",ĠwhileĠ",
    "3094" : "influenc",
    "3095" : "erĠinĠtheĠ",
    "3096" : "ame",
    "3097" : "Ġtop",
    "3098" : "unn",
    "3099" : "uns",
    "3100" : "usedĠto",
    "3101" : "ĠbeĠ",
    "3102" : "eck",
    "3103" : "exic",
    "3104" : "Ġme",
    "3105" : "Ġboth",
    "3106" : "Ġarg",
    "3107" : "Ġbeg",
    "3108" : "Ġthought",
    "3109" : "umentĠ",
    "3110" : "ĠthoseĠ",
    "3111" : "eval",
    "3112" : "roduction",
    "3113" : "Ġmark",
    "3114" : "ountĠ",
    "3115" : "s.čĊ-Ġ",
    "3116" : "heart",
    "3117" : "component",
    "3118" : "opinion",
    "3119" : "inĠorderĠtoĠ",
    "3120" : "iveĠvoic",
    "3121" : "iesĠtoĠ",
    "3122" : "Ġteach",
    "3123" : "eĠcustomerĠ",
    "3124" : "orĠexample",
    "3125" : "eĠdata",
    "3126" : "ustomers",
    "3127" : "preadĠ",
    "3128" : "helpsĠ",
    "3129" : ".ĠSt",
    "3130" : "record",
    "3131" : ".ĠčĊ4",
    "3132" : "ensiveĠ",
    "3133" : "sĠsh",
    "3134" : "energy.čĊ",
    "3135" : "likeĠtoĠ",
    "3136" : "ablish",
    "3137" : "sĠofĠaĠ",
    "3138" : "čĊGenerateĠaĠs",
    "3139" : "createĠaĠ",
    "3140" : ".ĠCon",
    "3141" : "virt",
    "3142" : "eĠthatĠisĠ",
    "3143" : "ĠtheĠcor",
    "3144" : "numer",
    "3145" : "shouldĠ",
    "3146" : "eĠthreeĠ",
    "3147" : "storyĠ",
    "3148" : ".ĠInĠaddition",
    "3149" : "ĠshouldĠb",
    "3150" : "2020",
    "3151" : "econdĠ",
    "3152" : "idea",
    "3153" : "developmentĠ",
    "3154" : "ĠthroughĠtheĠ",
    "3155" : "famousĠ",
    "3156" : "passion",
    "3157" : "respond",
    "3158" : "Ġscient",
    "3159" : "ymbol",
    "3160" : "čĊCompos",
    "3161" : "Ġstatement",
    "3162" : "čĊOneĠ",
    "3163" : "believ",
    "3164" : "futur",
    "3165" : "bothĠ",
    "3166" : "futureĠ",
    "3167" : "necessaryĠ",
    "3168" : "dividual",
    "3169" : "physical",
    "3170" : "ĠaroundĠtheĠ",
    "3171" : "ĠtoĠstayĠ",
    "3172" : "phraseĠ\"",
    "3173" : "Ġaudienc",
    "3174" : "Canad",
    "3175" : "naturalĠlanguageĠprocess",
    "3176" : "ossilĠfuel",
    "3177" : "25",
    "3178" : "ĠfromĠ",
    "3179" : "-up",
    "3180" : "-19",
    "3181" : "LE",
    "3182" : "Ph",
    "3183" : "bat",
    "3184" : "bak",
    "3185" : "flo",
    "3186" : "mit",
    "3187" : "ss",
    "3188" : "wn",
    "3189" : "careĠ",
    "3190" : "wis",
    "3191" : "ryp",
    "3192" : "clos",
    "3193" : "ynam",
    "3194" : "mountain",
    "3195" : "čĊ7",
    "3196" : "inst",
    "3197" : "ers,Ġ",
    "3198" : "ersĠandĠ",
    "3199" : "onom",
    "3200" : "sĠonĠ",
    "3201" : "orĠd",
    "3202" : "Ġaway",
    "3203" : "inglyĠ",
    "3204" : ",ĠheĠ",
    "3205" : "orrow",
    "3206" : "asc",
    "3207" : ",Ġwhil",
    "3208" : "lot",
    "3209" : "chat",
    "3210" : "root",
    "3211" : "erĠofĠ",
    "3212" : "idg",
    "3213" : "Ġbl",
    "3214" : "start",
    "3215" : "urfac",
    "3216" : "abol",
    "3217" : "Ġstar",
    "3218" : "Ġdevelop",
    "3219" : "mob",
    "3220" : "encourag",
    "3221" : "comeĠ",
    "3222" : "rib",
    "3223" : "ountĠofĠ",
    "3224" : "Ġmarket",
    "3225" : "dueĠtoĠtheĠ",
    "3226" : "čĊAd",
    "3227" : "ingĠtheĠs",
    "3228" : "udden",
    "3229" : "Ġtrust",
    "3230" : "čĊ-Ġ2",
    "3231" : "čĊ-ĠS",
    "3232" : "introduc",
    "3233" : "occur",
    "3234" : "resultĠ",
    "3235" : "ĠaĠsmall",
    "3236" : "Ġcontain",
    "3237" : "behavior",
    "3238" : "phot",
    "3239" : "strong",
    "3240" : "eledĠ",
    "3241" : "ostĠofĠ",
    "3242" : "ĠwithĠaĠ",
    "3243" : "ĠshouldĠalsoĠ",
    "3244" : "Ġtime",
    "3245" : "draw",
    "3246" : "sĠofĠs",
    "3247" : "tention",
    "3248" : "čĊFor",
    "3249" : "healthcar",
    "3250" : "decid",
    "3251" : "higherĠ",
    "3252" : "highestĠ",
    "3253" : "ĠperĠ",
    "3254" : "internetĠ",
    "3255" : "eĠthanĠ",
    "3256" : "finish",
    "3257" : "consist",
    "3258" : "knownĠ",
    "3259" : "greaterĠ",
    "3260" : "leadingĠtoĠ",
    "3261" : "month",
    "3262" : "purchas",
    "3263" : "ĠcreativeĠ",
    "3264" : "resources",
    "3265" : "untilĠ",
    "3266" : "eĠwasĠaĠ",
    "3267" : "ArtificialĠIntellig",
    "3268" : "articleĠ",
    "3269" : "čĊDesignĠaĠ",
    "3270" : "digitalĠ",
    "3271" : "receiv",
    "3272" : "čĊComeĠupĠwith",
    "3273" : "Ġtablespoon",
    "3274" : "'r",
    "3275" : "Ap",
    "3276" : "e(",
    "3277" : "cm",
    "3278" : "dĠtheĠ",
    "3279" : "fiv",
    "3280" : "e.ĠA",
    "3281" : "ner",
    "3282" : "nut",
    "3283" : "mayĠ",
    "3284" : "pell",
    "3285" : "burn",
    "3286" : "Pyth",
    "3287" : "vision",
    "3288" : "divers",
    "3289" : "s.ĠAdditionally,Ġ",
    "3290" : "GPT",
    "3291" : "leĠab",
    "3292" : "French",
    "3293" : "material",
    "3294" : "witch",
    "3295" : "čĊ6",
    "3296" : "orang",
    "3297" : "anĠd",
    "3298" : "atingĠtheĠ",
    "3299" : "al,Ġ",
    "3300" : "sĠfromĠ",
    "3301" : ".čĊ-Ġ",
    "3302" : "arch",
    "3303" : "čĊUs",
    "3304" : "remain",
    "3305" : "aset",
    "3306" : "edĠfor",
    "3307" : "imentĠ",
    "3308" : "Ġsuccessful",
    "3309" : "emon",
    "3310" : "them",
    "3311" : "ituation",
    "3312" : "eĠactiv",
    "3313" : "poin",
    "3314" : "age.čĊ",
    "3315" : "Ġsatisf",
    "3316" : "ofĠtheĠt",
    "3317" : ":ĠC",
    "3318" : ":ĠS",
    "3319" : "Ġinformation",
    "3320" : "evolution",
    "3321" : "Ġmulti",
    "3322" : "perfectĠ",
    "3323" : "compet",
    "3324" : "fear",
    "3325" : "ourĠliv",
    "3326" : "effectĠ",
    "3327" : "andem",
    "3328" : "ĠisĠanĠ",
    "3329" : "enderĠ",
    "3330" : "activ",
    "3331" : "morn",
    "3332" : "weatherĠ",
    "3333" : "mart",
    "3334" : "obot",
    "3335" : "ultur",
    "3336" : "providesĠ",
    "3337" : "eĠtoĠs",
    "3338" : "recycl",
    "3339" : "iesĠofĠ",
    "3340" : "yourself",
    "3341" : "easier",
    "3342" : "easilyĠ",
    "3343" : "wereĠ",
    "3344" : ".ĠCreat",
    "3345" : "icken",
    "3346" : "hasĠbeen",
    "3347" : "yĠandĠs",
    "3348" : "processĠofĠ",
    "3349" : "diseas",
    "3350" : "highĠ",
    "3351" : "decreas",
    "3352" : "ĠstoryĠ",
    "3353" : "localĠ",
    "3354" : "lifeĠ",
    "3355" : "invent",
    "3356" : "death",
    "3357" : "placeĠ",
    "3358" : "greatĠ",
    "3359" : "greater",
    "3360" : "intoĠaĠ",
    "3361" : "valueĠofĠ",
    "3362" : "2021",
    "3363" : "s,ĠasĠ",
    "3364" : "aff",
    "3365" : "well-",
    "3366" : ".ĠTheseĠ",
    "3367" : "discuss",
    "3368" : "concis",
    "3369" : "Ġcontinu",
    "3370" : "Ġacros",
    "3371" : "excit",
    "3372" : ".ĠOver",
    "3373" : "čĊGivenĠtheĠ",
    "3374" : "ĠaccessĠtoĠ",
    "3375" : "remember",
    "3376" : "happen",
    "3377" : "ĠautomateĠ",
    "3378" : "robotic",
    "3379" : "ĠareasĠ",
    "3380" : "rocer",
    "3381" : "čĊChang",
    "3382" : "UnitedĠStatesĠ",
    "3383" : "Ġappli",
    "3384" : "particular",
    "3385" : "expression",
    "3386" : "oxy",
    "3387" : "government",
    "3388" : "utiliz",
    "3389" : "čĊCompareĠandĠ",
    "3390" : "moneyĠ",
    "3391" : "Ġpollution",
    "3392" : "varietyĠofĠ",
    "3393" : "elsius",
    "3394" : "likelyĠtoĠ",
    "3395" : "ynamic",
    "3396" : "ĠD",
    "3397" : "Ġon",
    "3398" : "Ġhow",
    "3399" : ";čĊ",
    "3400" : "EO",
    "3401" : "Gre",
    "3402" : "Goo",
    "3403" : "Wor",
    "3404" : "ThisĠ",
    "3405" : "ff",
    "3406" : "bal",
    "3407" : "bar",
    "3408" : "aid",
    "3409" : "fat",
    "3410" : "dam",
    "3411" : "iar",
    "3412" : "ioĠ",
    "3413" : "gleĠ",
    "3414" : "fill",
    "3415" : "rul",
    "3416" : "last",
    "3417" : "ven",
    "3418" : "mineĠ",
    "3419" : "ired",
    "3420" : "wit",
    "3421" : "rout",
    "3422" : "sĠtheĠs",
    "3423" : "homeĠ",
    "3424" : "gameĠ",
    "3425" : "e\".čĊ",
    "3426" : "harm",
    "3427" : "typ",
    "3428" : "sĠtoĠs",
    "3429" : "mustĠ",
    "3430" : "dream",
    "3431" : "waterĠ",
    "3432" : "South",
    "3433" : "Mexic",
    "3434" : "littleĠ",
    "3435" : "yellow",
    "3436" : "čĊY",
    "3437" : "ern",
    "3438" : "enh",
    "3439" : "atĠ",
    "3440" : "ertĠ",
    "3441" : "inform",
    "3442" : ".čĊ5",
    "3443" : "ingleĠ",
    "3444" : "ing,Ġs",
    "3445" : ",Ġwith",
    "3446" : "isĠan",
    "3447" : "isĠtoĠ",
    "3448" : "rog",
    "3449" : "lečĊ",
    "3450" : "itĠcanĠ",
    "3451" : "algorithm",
    "3452" : "es,ĠsuchĠasĠ",
    "3453" : "yĠ=Ġ",
    "3454" : "ily",
    "3455" : "edĠon",
    "3456" : "urt",
    "3457" : "ĠĠĠ",
    "3458" : "imil",
    "3459" : "igr",
    "3460" : "stant",
    "3461" : "stanc",
    "3462" : "ingdom",
    "3463" : "irdĠ",
    "3464" : "esĠbetween",
    "3465" : "umn",
    "3466" : "agno",
    "3467" : "ification",
    "3468" : "poonĠ",
    "3469" : "hasĠs",
    "3470" : "akeĠ",
    "3471" : "Ġstay",
    "3472" : "Ġdescrib",
    "3473" : "near",
    "3474" : "duct",
    "3475" : "čĊCustomer",
    "3476" : "ized",
    "3477" : "advantag",
    "3478" : "uppl",
    "3479" : "formul",
    "3480" : "output",
    "3481" : "ityĠtoĠ",
    "3482" : "mentalĠ",
    "3483" : "ĠisĠa",
    "3484" : "haveĠs",
    "3485" : "efinition",
    "3486" : "čĊ-ĠC",
    "3487" : "Ġconc",
    "3488" : "Ġcombin",
    "3489" : "partĠ",
    "3490" : "pleas",
    "3491" : "strateg",
    "3492" : "ultim",
    "3493" : "čĊDescribeĠ",
    "3494" : "elebr",
    "3495" : "learnĠfrom",
    "3496" : "blu",
    "3497" : "positiv",
    "3498" : "ingĠcan",
    "3499" : "Ġatmospher",
    "3500" : "Inter",
    "3501" : "delic",
    "3502" : "AIĠsystem",
    "3503" : "e,Ġther",
    "3504" : "keepĠ",
    "3505" : ".ĠForĠexample",
    "3506" : "minim",
    "3507" : "deliver",
    "3508" : "ĠtypeĠof",
    "3509" : "underst",
    "3510" : "presentĠ",
    "3511" : "able.čĊ",
    "3512" : "able,Ġ",
    "3513" : "čĊWhatĠareĠtheĠ",
    "3514" : "usedĠin",
    "3515" : "usedĠinĠ",
    "3516" : "earchĠ",
    "3517" : "enefit",
    "3518" : "anguageĠ",
    "3519" : "aft",
    "3520" : "affic",
    "3521" : "Ġassign",
    "3522" : "aphor",
    "3523" : "eĠandĠtheĠ",
    "3524" : "limit",
    "3525" : "pression",
    "3526" : "uitableĠ",
    "3527" : "hadĠaĠ",
    "3528" : "hadow",
    "3529" : "eĠshopp",
    "3530" : "label",
    "3531" : "ĠAmeric",
    "3532" : "management",
    "3533" : "feelingĠ",
    "3534" : "Ġcommun",
    "3535" : "Ġwords.čĊ",
    "3536" : "čĊExplainĠtheĠconcep",
    "3537" : "ĠsomeoneĠ",
    "3538" : "operat",
    "3539" : "uniqueĠ",
    "3540" : "guid",
    "3541" : ".ĠHowever",
    "3542" : "propert",
    "3543" : "Ġbeliev",
    "3544" : "ronic",
    "3545" : "left",
    "3546" : "princi",
    "3547" : "extremeĠ",
    "3548" : "ĠabilityĠtoĠ",
    "3549" : "Europe",
    "3550" : "\"C",
    "3551" : ".3",
    "3552" : "14",
    "3553" : ",Ġt",
    "3554" : ",Ġa",
    "3555" : ":čĊ",
    "3556" : "Tr",
    "3557" : "Wh",
    "3558" : "cen",
    "3559" : "eal",
    "3560" : "dur",
    "3561" : "giveĠ",
    "3562" : "sw",
    "3563" : "o.čĊ",
    "3564" : "e,Ġand",
    "3565" : "iod",
    "3566" : "yc",
    "3567" : "mind",
    "3568" : "pay",
    "3569" : "yl",
    "3570" : "olog",
    "3571" : "nessĠ",
    "3572" : "rand",
    "3573" : "vill",
    "3574" : "ricĠ",
    "3575" : "frequ",
    "3576" : "nightĠ",
    "3577" : "certain",
    "3578" : "categor",
    "3579" : "getherĠ",
    "3580" : "grocer",
    "3581" : "ination",
    "3582" : "ings",
    "3583" : "atel",
    "3584" : "ortĠ",
    "3585" : "one.čĊ",
    "3586" : "sĠonĠtheĠ",
    "3587" : "atedĠtoĠ",
    "3588" : ".ĠV",
    "3589" : ",Ġ8",
    "3590" : "Ġset",
    "3591" : "ĠsuchĠasĠ",
    "3592" : "ĠandĠst",
    "3593" : "lean",
    "3594" : "ingĠit",
    "3595" : "Ġsub",
    "3596" : "inputĠ",
    "3597" : "ently",
    "3598" : "useĠtheĠ",
    "3599" : "elineĠ",
    "3600" : "etic",
    "3601" : "ingĠstrateg",
    "3602" : "charg",
    "3603" : "eĠasĠ",
    "3604" : "ureĠtoĠ",
    "3605" : "esĠwith",
    "3606" : "arryĠ",
    "3607" : "eĠaction",
    "3608" : "irl",
    "3609" : "identĠ",
    "3610" : "embr",
    "3611" : "hap",
    "3612" : "acyĠ",
    "3613" : "Ġdr",
    "3614" : "lowĠ",
    "3615" : "ofĠtheĠs",
    "3616" : ",ĠandĠs",
    "3617" : "projectĠ",
    "3618" : "univers",
    "3619" : "node",
    "3620" : ".ĠIĠ",
    "3621" : "emphas",
    "3622" : ".ĠAĠ",
    "3623" : "čĊAl",
    "3624" : "Ġdegre",
    "3625" : "udget",
    "3626" : "outs",
    "3627" : "ressĠ",
    "3628" : "ĠisĠtoĠ",
    "3629" : "haveĠtheĠ",
    "3630" : "integr",
    "3631" : "čĊChatbot",
    "3632" : "čĊ-ĠP",
    "3633" : "youĠcanĠ",
    "3634" : "logoĠ",
    "3635" : "parent",
    "3636" : "liqu",
    "3637" : "Ġtravel",
    "3638" : "eĠdiffer",
    "3639" : "eĠwouldĠ",
    "3640" : "elementĠ",
    "3641" : "brush",
    "3642" : "everalĠ",
    "3643" : "arget",
    "3644" : "ialog",
    "3645" : "ĠwhenĠ",
    "3646" : "high-",
    "3647" : "highlyĠ",
    "3648" : "sub",
    "3649" : "eĠthre",
    "3650" : "čĊWriteĠaĠs",
    "3651" : "grammat",
    "3652" : "relax",
    "3653" : "ia,Ġ",
    "3654" : "contentĠ",
    "3655" : "control",
    "3656" : "followingĠsentence.čĊ",
    "3657" : "experienceĠ",
    "3658" : "urnit",
    "3659" : "mostĠimportantĠ",
    "3660" : "problem-s",
    "3661" : "čĊExplainĠwh",
    "3662" : "afet",
    "3663" : "world'sĠ",
    "3664" : "xĠ+Ġ",
    "3665" : "identify",
    "3666" : "lookingĠfor",
    "3667" : "whatĠ",
    "3668" : "Ġcontrol",
    "3669" : "generallyĠ",
    "3670" : "Ġseem",
    "3671" : "Ġconsum",
    "3672" : "eĠtrans",
    "3673" : "ĠdoesĠnotĠ",
    "3674" : "vention",
    "3675" : "launch",
    "3676" : "hydro",
    "3677" : "written",
    "3678" : "operation",
    "3679" : "ifficultĠ",
    "3680" : "runn",
    "3681" : "čĊRewriteĠtheĠfollowingĠsentenceĠ",
    "3682" : "potato",
    "3683" : "personalizedĠ",
    "3684" : "ignificantĠ",
    "3685" : ",Ġ3,Ġ",
    "3686" : "radi",
    "3687" : "figur",
    "3688" : "ĠtraditionalĠ",
    "3689" : "Ġtomato",
    "3690" : "ĠworldĠ",
    "3691" : "ysteriousĠ",
    "3692" : "quantum",
    "3693" : "Ġinvolv",
    "3694" : "progress",
    "3695" : "contrast",
    "3696" : "India",
    "3697" : "origin",
    "3698" : "Ġsatisfaction",
    "3699" : "ĠF",
    "3700" : "$3",
    "3701" : "'Ġ",
    "3702" : "/4",
    "3703" : ",čĊ",
    "3704" : "):Ġ",
    "3705" : "ĠonĠtheĠ",
    "3706" : "8,",
    "3707" : "2čĊ",
    "3708" : ",Ġas",
    "3709" : "ĠIĠ",
    "3710" : "AĠ",
    "3711" : "ML",
    "3712" : "==Ġ",
    "3713" : "[i",
    "3714" : "Pers",
    "3715" : "ee",
    "3716" : "fĠtheĠ",
    "3717" : "dest",
    "3718" : "four",
    "3719" : "bers",
    "3720" : "hid",
    "3721" : "hour",
    "3722" : "kil",
    "3723" : "mis",
    "3724" : "fast",
    "3725" : "e.ĠčĊ",
    "3726" : "sol",
    "3727" : "never",
    "3728" : "curr",
    "3729" : "pound",
    "3730" : "nectĠ",
    "3731" : "customerĠservic",
    "3732" : "videĠ",
    "3733" : "bank",
    "3734" : "bookĠ",
    "3735" : "n'tĠ",
    "3736" : "description",
    "3737" : "jump",
    "3738" : "laptop",
    "3739" : "eĠC",
    "3740" : "Ġact",
    "3741" : "Ġant",
    "3742" : "esĠto",
    "3743" : "oneĠc",
    "3744" : "al.čĊ",
    "3745" : "heĠwasĠ",
    "3746" : "ing?čĊ",
    "3747" : "ingĠtoĠtheĠ",
    "3748" : "icat",
    "3749" : "Ġsolv",
    "3750" : "ĠanĠalgorithm",
    "3751" : "ĠtoĠb",
    "3752" : "ĠaĠp",
    "3753" : "ingĠus",
    "3754" : "che",
    "3755" : "using",
    "3756" : "Ġthreat",
    "3757" : "olor",
    "3758" : "stĠtheĠ",
    "3759" : "thĠ",
    "3760" : "amp",
    "3761" : "esĠforĠ",
    "3762" : "unĠ",
    "3763" : "espit",
    "3764" : "eĠtheĠt",
    "3765" : "though",
    "3766" : "plish",
    "3767" : "unction",
    "3768" : "exec",
    "3769" : "emberĠ",
    "3770" : "Ġdec",
    "3771" : "Ġwalk",
    "3772" : "ecret",
    "3773" : "evenĠ",
    "3774" : "čĊTheĠc",
    "3775" : "Ġdown",
    "3776" : "Ġalong",
    "3777" : "ounter",
    "3778" : "very",
    "3779" : "estim",
    "3780" : "s.čĊ3",
    "3781" : "Ġstock",
    "3782" : "verageĠ",
    "3783" : "ooth",
    "3784" : "ĠmostĠ",
    "3785" : "izingĠtheĠ",
    "3786" : "Ġtown",
    "3787" : "eĠaĠlistĠofĠ",
    "3788" : "čĊAĠs",
    "3789" : "comfort",
    "3790" : "ockĠ",
    "3791" : "groundĠ",
    "3792" : ".ĠTher",
    "3793" : "Ġtra",
    "3794" : "youĠw",
    "3795" : "illustr",
    "3796" : "čĊInĠ",
    "3797" : "čĊGener",
    "3798" : "ending",
    "3799" : "Ġtrack",
    "3800" : "ersĠareĠ",
    "3801" : "complish",
    "3802" : "week",
    "3803" : "partĠofĠ",
    "3804" : "prev",
    "3805" : "string",
    "3806" : "industri",
    "3807" : "ĠthatĠit",
    "3808" : "eĠway",
    "3809" : "provideĠtheĠ",
    "3810" : "ĠaĠcl",
    "3811" : "Ġatom",
    "3812" : "esĠandĠs",
    "3813" : "Ġlif",
    "3814" : "hasĠbeenĠ",
    "3815" : ".ĠAddĠ",
    "3816" : "deb",
    "3817" : "čĊHeĠ",
    "3818" : ".ĠAdditionally,",
    "3819" : "ĠcanĠalsoĠ",
    "3820" : "pecialĠ",
    "3821" : "pecific",
    "3822" : "ĠanĠinter",
    "3823" : "ĠcomputerĠ",
    "3824" : "etermin",
    "3825" : "Ġadvic",
    "3826" : "hadĠbeen",
    "3827" : "rangeĠofĠ",
    "3828" : ".ĠThis",
    "3829" : ".ĠTheyĠareĠ",
    "3830" : "pursu",
    "3831" : "organism",
    "3832" : "global",
    "3833" : "čĊCreateĠaĠlistĠofĠ",
    "3834" : "helpĠyou",
    "3835" : "čĊFindĠtheĠs",
    "3836" : "population",
    "3837" : "ĠintoĠ",
    "3838" : "hypo",
    "3839" : "iku",
    "3840" : "ĠafterĠ",
    "3841" : "eĠadvantag",
    "3842" : "vegetableĠ",
    "3843" : "filledĠ",
    "3844" : "ĠartificialĠintelligenceĠ",
    "3845" : "restaurantĠ",
    "3846" : "financial",
    "3847" : "eĠanĠexampleĠof",
    "3848" : "Ġcomplex",
    "3849" : "requirement",
    "3850" : "excellentĠ",
    "3851" : "either",
    "3852" : "evalu",
    "3853" : "abolism",
    "3854" : "ĠperĠ100,000",
    "3855" : "oxygen",
    "3856" : "agnos",
    "3857" : "čĊCompareĠandĠcontrast",
    "3858" : "problem-solv",
    "3859" : "\"A",
    "3860" : ".S",
    "3861" : "3D",
    "3862" : ".com",
    "3863" : "),ĠtheĠ",
    "3864" : "Ġprocess",
    "3865" : ">čĊ",
    "3866" : "II",
    "3867" : "NN",
    "3868" : "Nor",
    "3869" : "Res",
    "3870" : "e\"",
    "3871" : "ais",
    "3872" : "een",
    "3873" : "mp",
    "3874" : "ief",
    "3875" : "nic",
    "3876" : "cred",
    "3877" : "zz",
    "3878" : "cost",
    "3879" : "wast",
    "3880" : "wideĠ",
    "3881" : "s.ĠIt",
    "3882" : "faster",
    "3883" : "kingdom",
    "3884" : "girl",
    "3885" : "erver",
    "3886" : "inĠaĠs",
    "3887" : "on.čĊ",
    "3888" : "orĠin",
    "3889" : ".ĠK",
    "3890" : ".ĠU",
    "3891" : ",ĠC",
    "3892" : "eĠisĠaĠ",
    "3893" : "enabl",
    "3894" : ",Ġd",
    "3895" : "Ġturn",
    "3896" : "lex",
    "3897" : "is.čĊ",
    "3898" : "Ġsourc",
    "3899" : "ingĠd",
    "3900" : "Ġcor",
    "3901" : "use",
    "3902" : "entalĠ",
    "3903" : "Ġspac",
    "3904" : "road",
    "3905" : "ingĠout",
    "3906" : "ĠaĠcomputer",
    "3907" : "on'tĠ",
    "3908" : "ingĠnew",
    "3909" : "isĠs",
    "3910" : "inste",
    "3911" : "edĠup",
    "3912" : "Ġtweet",
    "3913" : "esĠfor",
    "3914" : "Ġsociet",
    "3915" : "edĠwithĠ",
    "3916" : "esĠofĠtheĠ",
    "3917" : "idi",
    "3918" : "esĠorĠ",
    "3919" : "ĠtoĠreduceĠ",
    "3920" : "alĠofĠ",
    "3921" : "esĠhaveĠ",
    "3922" : "playĠ",
    "3923" : "ĠtoĠfind",
    "3924" : "Ġmo",
    "3925" : "Ġmon",
    "3926" : "ĠwereĠ",
    "3927" : "Ġmet",
    "3928" : "ĠinĠtheĠs",
    "3929" : "Ġdep",
    "3930" : "ollabor",
    "3931" : "pressĠ",
    "3932" : "ĠbusinessĠ",
    "3933" : "Ġdecision",
    "3934" : "abilities",
    "3935" : ".ĠAl",
    "3936" : "aperĠ",
    "3937" : "heartĠ",
    "3938" : "effort",
    "3939" : "haiku",
    "3940" : "'sĠs",
    "3941" : "ccessĠ",
    "3942" : "indow",
    "3943" : "establish",
    "3944" : "ersĠto",
    "3945" : "lyĠon",
    "3946" : "Ġconne",
    "3947" : "onĠM",
    "3948" : "libr",
    "3949" : "ĠanĠun",
    "3950" : "partĠof",
    "3951" : "ĠtheĠsameĠ",
    "3952" : "ĠtheirĠs",
    "3953" : "uredĠ",
    "3954" : "Ġshar",
    "3955" : "makeĠs",
    "3956" : "incor",
    "3957" : "elet",
    "3958" : "workingĠ",
    "3959" : "čĊTwoĠ",
    "3960" : "recentlyĠ",
    "3961" : "ableĠandĠ",
    "3962" : "čĊThereĠ",
    "3963" : "waysĠtoĠ",
    "3964" : "čĊĠĠĠĠ#",
    "3965" : "sĠofĠclimateĠchang",
    "3966" : "Ġattention",
    "3967" : "medic",
    "3968" : ".ĠWith",
    "3969" : "namedĠ",
    "3970" : "ĠtakesĠ",
    "3971" : "Ġpass",
    "3972" : ".ĠInĠtheĠ",
    "3973" : "storm",
    "3974" : "location",
    "3975" : "wasĠs",
    "3976" : "entenceĠusingĠtheĠ",
    "3977" : "locatedĠ",
    "3978" : "numbers",
    "3979" : "hasĠtheĠ",
    "3980" : "199",
    "3981" : "sĠthatĠareĠ",
    "3982" : "pecial",
    "3983" : "world.čĊ",
    "3984" : "čĊMyĠ",
    "3985" : "čĊExplainĠwhat",
    "3986" : "product.čĊ",
    "3987" : "bott",
    "3988" : "development",
    "3989" : "insight",
    "3990" : "itemsĠ",
    "3991" : "čĊRewriteĠthisĠ",
    "3992" : "letter",
    "3993" : "letterĠ",
    "3994" : "riverĠ",
    "3995" : "fix",
    "3996" : "untilĠtheĠ",
    "3997" : "depend",
    "3998" : "Ġafter",
    "3999" : "makingĠit",
    "4000" : "ĠsomethingĠ",
    "4001" : "Ġcm.čĊ",
    "4002" : "eachĠother",
    "4003" : "necessar",
    "4004" : "Ġavo",
    "4005" : "čĊ-Ġ1/2",
    "4006" : "Ġcolor",
    "4007" : ".ĠFinally",
    "4008" : "onlineĠshopp",
    "4009" : "čĊSuggestĠaĠ",
    "4010" : "memor",
    "4011" : "ĠstoryĠaboutĠaĠ",
    "4012" : "bonĠdioxid",
    "4013" : "bonĠdioxideĠ",
    "4014" : "pervisedĠlearn",
    "4015" : "messag",
    "4016" : "riskĠofĠ",
    "4017" : "Ġauthor",
    "4018" : "čĊConvertĠtheĠ",
    "4019" : "-term",
    "4020" : "ArtificialĠIntelligenceĠ",
    "4021" : "-3",
    "4022" : "//",
    "4023" : ")ĠandĠ",
    "4024" : "2,",
    "4025" : "ĠitsĠ",
    "4026" : "45",
    "4027" : "75",
    "4028" : "-mak",
    "4029" : "3:Ġ",
    "4030" : "(AI",
    "4031" : "500",
    "4032" : "Brit",
    "4033" : "Pl",
    "4034" : "How",
    "4035" : "Ġpost",
    "4036" : "Rec",
    "4037" : "Glob",
    "4038" : "ačĊ",
    "4039" : "blo",
    "4040" : "ju",
    "4041" : "efor",
    "4042" : "fel",
    "4043" : "hon",
    "4044" : "Orang",
    "4045" : "his",
    "4046" : "meĠ",
    "4047" : "YourĠ",
    "4048" : "ffect",
    "4049" : "veĠ",
    "4050" : "okĠ",
    "4051" : "won",
    "4052" : "vac",
    "4053" : "fire",
    "4054" : "rich",
    "4055" : "pack",
    "4056" : "wav",
    "4057" : "auth",
    "4058" : "xiet",
    "4059" : "gather",
    "4060" : "augh",
    "4061" : "insĠ",
    "4062" : "eĠwith",
    "4063" : "Ġaut",
    "4064" : "ine.čĊ",
    "4065" : "org",
    "4066" : "ers.čĊ",
    "4067" : "inessĠ",
    "4068" : "ateĠs",
    "4069" : ".čĊI",
    "4070" : "enew",
    "4071" : "eĠareĠ",
    "4072" : "itation",
    "4073" : "es.ĠItĠ",
    "4074" : "yĠin",
    "4075" : "ion,Ġ",
    "4076" : "offic",
    "4077" : "isĠthat",
    "4078" : "ĠsomeĠ",
    "4079" : "sĠlikeĠ",
    "4080" : "replac",
    "4081" : "Ġche",
    "4082" : "roleĠ",
    "4083" : "ĠtoĠcon",
    "4084" : "ival",
    "4085" : "ingĠdata",
    "4086" : "eder",
    "4087" : "edĠand",
    "4088" : "forĠaĠs",
    "4089" : "erĠofĠtheĠ",
    "4090" : "ingĠmodel",
    "4091" : "plic",
    "4092" : "Ġtot",
    "4093" : "irĠ",
    "4094" : "Ġsleep",
    "4095" : "idenc",
    "4096" : "Ġwast",
    "4097" : "choic",
    "4098" : "ifĠtheĠ",
    "4099" : "ace",
    "4100" : "Ġarm",
    "4101" : "threeĠ",
    "4102" : "immedi",
    "4103" : "expos",
    "4104" : "ecos",
    "4105" : "eĠtheĠfollowingĠ",
    "4106" : "ourageĠ",
    "4107" : "quir",
    "4108" : "reath",
    "4109" : "ummer",
    "4110" : "worth",
    "4111" : "conom",
    "4112" : "mole",
    "4113" : "check",
    "4114" : "čĊTheĠmain",
    "4115" : "compos",
    "4116" : "condition",
    "4117" : "peedĠ",
    "4118" : ".ĠInĠ",
    "4119" : "prior",
    "4120" : "grav",
    "4121" : "fromĠaĠ",
    "4122" : "ocial",
    "4123" : "ellĠ",
    "4124" : "Ġtry",
    "4125" : ".ĠTheĠs",
    "4126" : "respect",
    "4127" : "youĠcan",
    "4128" : "eĠcreat",
    "4129" : "paris",
    "4130" : "Ġcondition",
    "4131" : "Ġtele",
    "4132" : "liber",
    "4133" : "čĊDevelop",
    "4134" : "ĠtrueĠ",
    "4135" : "eĠdesign",
    "4136" : "uchĠasĠtheĠ",
    "4137" : "Ġfam",
    "4138" : "lyĠandĠ",
    "4139" : "Ġadapt",
    "4140" : ".ĠčĊ5",
    "4141" : "moreĠaccur",
    "4142" : "eason",
    "4143" : "čĊ1.ĠIn",
    "4144" : ".ĠStr",
    "4145" : "easyĠtoĠ",
    "4146" : "ĠaccessĠ",
    "4147" : "fiction",
    "4148" : ".ĠHav",
    "4149" : "ĠshortĠ",
    "4150" : "Ġaccept",
    "4151" : "Ġlarg",
    "4152" : "Ġstring",
    "4153" : "improvingĠ",
    "4154" : "ethodĠ",
    "4155" : "healthcare",
    "4156" : "aredĠ",
    "4157" : "changingĠ",
    "4158" : "retch",
    "4159" : "ĠtheĠtop",
    "4160" : "deep",
    "4161" : "gett",
    "4162" : "panish",
    "4163" : "goals",
    "4164" : ".ĠByĠ",
    "4165" : "environmentĠ",
    "4166" : "valuableĠ",
    "4167" : "usedĠfor",
    "4168" : "uggestĠ",
    "4169" : "plann",
    "4170" : "s,Ġallow",
    "4171" : "visit",
    "4172" : "visual",
    "4173" : "ĠwordĠ",
    "4174" : "collabor",
    "4175" : "epĠlearningĠ",
    "4176" : "ummaryĠofĠtheĠ",
    "4177" : ".ĠThrough",
    "4178" : "greenĠ",
    "4179" : "Ġtransaction",
    "4180" : "eventuallyĠ",
    "4181" : "websiteĠ",
    "4182" : "emperature",
    "4183" : "friendship",
    "4184" : "reachĠ",
    "4185" : "čĊIdentify",
    "4186" : "Ġconsist",
    "4187" : "inputčĊ",
    "4188" : "input,Ġ",
    "4189" : "Ġamong",
    "4190" : "ĠwasĠaĠ",
    "4191" : "ĠbetterĠ",
    "4192" : "quality",
    "4193" : "computer",
    "4194" : "ashion",
    "4195" : "ĠarticleĠab",
    "4196" : "rock",
    "4197" : "movieĠ",
    "4198" : "ributedĠ",
    "4199" : "majorĠ",
    "4200" : ".ĠOnĠtheĠ",
    "4201" : "ĠteaspoonĠ",
    "4202" : "expens",
    "4203" : ".ĠWhen",
    "4204" : "databas",
    "4205" : "ignificant",
    "4206" : "ĠassociatedĠwith",
    "4207" : "Ġtransportation",
    "4208" : "relatedĠtoĠtheĠ",
    "4209" : "reflect",
    "4210" : ".ĠFurthermore,Ġ",
    "4211" : "characteristic",
    "4212" : "punct",
    "4213" : "negativeĠ",
    "4214" : "čĊEditĠtheĠfollowingĠsentenceĠtoĠ",
    "4215" : "čĊRewriteĠtheĠsentenceĠ",
    "4216" : "furtherĠ",
    "4217" : "imilar",
    "4218" : "GoogleĠ",
    "4219" : "čĊGenerateĠ",
    "4220" : "ecosystem",
    "4221" : "Ġus",
    "4222" : "-1",
    "4223" : "Ġyou",
    "4224" : "..",
    "4225" : "3.",
    "4226" : ",Ġst",
    "4227" : "Qu",
    "4228" : "Sun",
    "4229" : "Val",
    "4230" : "The",
    "4231" : "iĠ",
    "4232" : "ge",
    "4233" : "beĠaĠ",
    "4234" : "iation",
    "4235" : "cast",
    "4236" : "osĠ",
    "4237" : "jud",
    "4238" : "oon",
    "4239" : "mid",
    "4240" : "mir",
    "4241" : "o,Ġ",
    "4242" : "e.ĠThisĠ",
    "4243" : "oast",
    "4244" : "sĠasĠ",
    "4245" : "s,ĠtheĠ",
    "4246" : "nuc",
    "4247" : "NationalĠ",
    "4248" : "e.ĠIt",
    "4249" : "capt",
    "4250" : "s.ĠThisĠ",
    "4251" : "wild",
    "4252" : "push",
    "4253" : "businessĠ",
    "4254" : "watch",
    "4255" : "Celsius",
    "4256" : "foot",
    "4257" : "TML",
    "4258" : "U.S",
    "4259" : "Spanish",
    "4260" : "en(",
    "4261" : "heĠs",
    "4262" : "onc",
    "4263" : "Ġtag",
    "4264" : "Ġtip",
    "4265" : "ate.čĊ",
    "4266" : "Ġtail",
    "4267" : ".Ġ#",
    "4268" : "eĠfromĠ",
    "4269" : "onstr",
    "4270" : "sĠmoreĠ",
    "4271" : "Ġsqu",
    "4272" : "it'sĠ",
    "4273" : "allow",
    "4274" : "ouch",
    "4275" : "Ġserv",
    "4276" : "ĠandĠisĠ",
    "4277" : "rok",
    "4278" : ",ĠwithĠ",
    "4279" : "eĠtak",
    "4280" : "ingĠtask",
    "4281" : "eĠtest",
    "4282" : "us,Ġ",
    "4283" : "ingĠwith",
    "4284" : "ingĠinĠtheĠ",
    "4285" : "Ġcount",
    "4286" : "sĠwhenĠ",
    "4287" : "ched",
    "4288" : "elcom",
    "4289" : "etc",
    "4290" : "Ġsuggest",
    "4291" : "useĠof",
    "4292" : "oliveĠ",
    "4293" : "amĠ",
    "4294" : "etail",
    "4295" : "entertain",
    "4296" : "Ġamaz",
    "4297" : "arah",
    "4298" : "ationĠof",
    "4299" : "eĠtheĠc",
    "4300" : "emicalĠ",
    "4301" : "Ġsupport",
    "4302" : "Ġbut",
    "4303" : "olarĠ",
    "4304" : "hair",
    "4305" : "Ġanswer",
    "4306" : "age,Ġ",
    "4307" : "Ġmad",
    "4308" : "unsu",
    "4309" : "Ġmuch",
    "4310" : "esĠofĠc",
    "4311" : "choos",
    "4312" : "pris",
    "4313" : "fric",
    "4314" : "mot",
    "4315" : "needĠ",
    "4316" : "eĠsolution",
    "4317" : "s.čĊ2",
    "4318" : "rief",
    "4319" : "heard",
    "4320" : "peed",
    "4321" : "termĠ",
    "4322" : "amountĠofĠ",
    "4323" : "epend",
    "4324" : ".ĠAsĠ",
    "4325" : "ĠtogetherĠ",
    "4326" : "čĊTheĠareaĠ",
    "4327" : ".ĠToĠ",
    "4328" : "bear",
    "4329" : "formĠofĠ",
    "4330" : "ity,ĠandĠ",
    "4331" : "weak",
    "4332" : "ĠisĠaĠs",
    "4333" : ",Ġso",
    "4334" : "ĠaĠsentenc",
    "4335" : "ĠtrackĠ",
    "4336" : "upportĠ",
    "4337" : "earĠ",
    "4338" : "prepar",
    "4339" : "eĠcountri",
    "4340" : "yourĠd",
    "4341" : "ership",
    "4342" : "obs",
    "4343" : "helpsĠtoĠ",
    "4344" : "Ġconversation",
    "4345" : "providedĠ",
    "4346" : "newsĠar",
    "4347" : "ĠaĠcreat",
    "4348" : "ityĠofĠ",
    "4349" : "ector",
    "4350" : "makeĠdecision",
    "4351" : "ĠatĠaĠ",
    "4352" : "etĠup",
    "4353" : "ingĠch",
    "4354" : "Ġfunction",
    "4355" : "sĠcanĠb",
    "4356" : "branch",
    "4357" : "createĠa",
    "4358" : "extr",
    "4359" : "personĠ",
    "4360" : "ethical",
    "4361" : "ervices",
    "4362" : "means",
    "4363" : "givenĠsentenc",
    "4364" : "interfac",
    "4365" : "Indi",
    "4366" : "Ġstrength",
    "4367" : "improveĠtheĠ",
    "4368" : "eĠthan",
    "4369" : "ĠthisĠs",
    "4370" : "risisĠ",
    "4371" : "healthcareĠ",
    "4372" : "words.čĊ",
    "4373" : "Ġchildren",
    "4374" : "ĠtypesĠofĠ",
    "4375" : "continu",
    "4376" : ".ĠPl",
    "4377" : "consequenc",
    "4378" : "youĠneedĠtoĠ",
    "4379" : "urrenc",
    "4380" : "monitor",
    "4381" : "longestĠ",
    "4382" : ".ĠThen",
    "4383" : "passageĠ",
    "4384" : "inspir",
    "4385" : "Ġstudy",
    "4386" : "identifyĠtheĠ",
    "4387" : "Ġtransform",
    "4388" : "understandingĠofĠtheĠ",
    "4389" : "buildĠ",
    "4390" : "background",
    "4391" : "popul",
    "4392" : "waren",
    "4393" : "resultingĠin",
    "4394" : "ĠstatementĠ",
    "4395" : "čĊGivenĠaĠ",
    "4396" : "ertainĠ",
    "4397" : "itĠisĠimportantĠtoĠ",
    "4398" : "listen",
    "4399" : "ĠactivitiesĠ",
    "4400" : "I'm",
    "4401" : "Ġautomat",
    "4402" : "sĠmayĠ",
    "4403" : "nightĠsk",
    "4404" : "agram",
    "4405" : "Ġminutes",
    "4406" : "publicĠ",
    "4407" : "desiredĠ",
    "4408" : "one'sĠ",
    "4409" : "statement",
    "4410" : "entral",
    "4411" : "statementĠ",
    "4412" : "justic",
    "4413" : "asedĠonĠtheĠ",
    "4414" : "connection",
    "4415" : "avorit",
    "4416" : "measur",
    "4417" : "financialĠ",
    "4418" : "Ġclass",
    "4419" : "ableĠsourc",
    "4420" : "eĠappro",
    "4421" : "becauseĠ",
    "4422" : "ĠWar",
    "4423" : "Ġcomplet",
    "4424" : "demonstr",
    "4425" : "AmericanĠ",
    "4426" : "Ġworld",
    "4427" : "relevant",
    "4428" : "ajor",
    "4429" : "ĠappropriateĠ",
    "4430" : "eĠtypicallyĠ",
    "4431" : "greenhouseĠgas",
    "4432" : "Ġtreatment",
    "4433" : "eĠamount",
    "4434" : "sĠshouldĠ",
    "4435" : "'reĠ",
    "4436" : "mentalĠhealth",
    "4437" : "random",
    "4438" : "operatingĠsystem",
    "4439" : "[i]",
    "4440" : "execut",
    "4441" : "idiom",
    "4442" : "enewableĠ",
    "4443" : "Ġchees",
    "4444" : "oliveĠoil",
    "4445" : "newsĠartic",
    "4446" : "Ġ\"",
    "4447" : "Ġup",
    "4448" : "60",
    "4449" : "8Ġ",
    "4450" : "2.čĊ",
    "4451" : "ĠfromĠtheĠ",
    "4452" : "ER",
    "4453" : "Car",
    "4454" : "Is",
    "4455" : "Dec",
    "4456" : "HeĠ",
    "4457" : "Pr",
    "4458" : "NoĠ",
    "4459" : "Jap",
    "4460" : "Pro",
    "4461" : "Fals",
    "4462" : "bus",
    "4463" : "apo",
    "4464" : "div",
    "4465" : "best",
    "4466" : "dateĠ",
    "4467" : "lon",
    "4468" : "les",
    "4469" : "lst",
    "4470" : "ux",
    "4471" : "liveĠ",
    "4472" : "ran",
    "4473" : "x^",
    "4474" : "lateĠ",
    "4475" : "fish",
    "4476" : "fail",
    "4477" : "gard",
    "4478" : "nav",
    "4479" : "tur",
    "4480" : "Prot",
    "4481" : "dire",
    "4482" : "vot",
    "4483" : "suchĠasĠ",
    "4484" : "y'sĠ",
    "4485" : "y.ĠTheĠ",
    "4486" : "calcul",
    "4487" : "twoĠ",
    "4488" : "ilos",
    "4489" : "lackĠ",
    "4490" : "gredient",
    "4491" : "font",
    "4492" : "ps:",
    "4493" : "difficult",
    "4494" : "htt",
    "4495" : "blockchain",
    "4496" : "fossilĠfuel",
    "4497" : "čĊ9",
    "4498" : "čĊ<",
    "4499" : "eĠar",
    "4500" : "Ġtit",
    "4501" : "eĠyou",
    "4502" : "inanc",
    "4503" : "inkĠ",
    "4504" : "enĠb",
    "4505" : "oreĠ",
    "4506" : "er'sĠ",
    "4507" : "oneĠs",
    "4508" : "ingingĠ",
    "4509" : "itĠtheĠ",
    "4510" : "enough",
    "4511" : "Ġsal",
    "4512" : "itam",
    "4513" : "Ġsav",
    "4514" : ",Ġor",
    "4515" : "ingĠaĠc",
    "4516" : "refer",
    "4517" : "heĠhadĠ",
    "4518" : "atesĠtheĠ",
    "4519" : "omen",
    "4520" : "alog",
    "4521" : "enter",
    "4522" : "Ġtax",
    "4523" : "ent,Ġ",
    "4524" : "ister",
    "4525" : "entir",
    "4526" : ",Ġcreat",
    "4527" : "ĠaĠh",
    "4528" : "elv",
    "4529" : "forĠan",
    "4530" : ",Ġbut",
    "4531" : "ivor",
    "4532" : "eĠtip",
    "4533" : "forec",
    "4534" : "ĠtoĠlearn",
    "4535" : "oll",
    "4536" : "iveĠandĠ",
    "4537" : "čĊYou",
    "4538" : "eĠac",
    "4539" : "Ġanyth",
    "4540" : "ĠtoĠreduc",
    "4541" : "olic",
    "4542" : "ations",
    "4543" : "ically",
    "4544" : "eĠare",
    "4545" : "roadĠ",
    "4546" : "eĠtwo",
    "4547" : "Ġwent",
    "4548" : "omato",
    "4549" : "esĠwithĠ",
    "4550" : "iff",
    "4551" : "ull",
    "4552" : "irth",
    "4553" : "chopp",
    "4554" : "alĠart",
    "4555" : "Ġwater",
    "4556" : "chrom",
    "4557" : "useful",
    "4558" : "Ġdat",
    "4559" : "Ġbook",
    "4560" : "Ġste",
    "4561" : "eventĠ",
    "4562" : "lowerĠ",
    "4563" : ":ĠčĊ",
    "4564" : "quot",
    "4565" : "whyĠ",
    "4566" : "allyĠs",
    "4567" : "emerg",
    "4568" : "motion",
    "4569" : "ĠĠĠĠT",
    "4570" : "construct",
    "4571" : "istanc",
    "4572" : "oce",
    "4573" : "resil",
    "4574" : "forĠi",
    "4575" : "andid",
    "4576" : "ellĠm",
    "4577" : "period",
    "4578" : "Ġissu",
    "4579" : "conduct",
    "4580" : "preh",
    "4581" : "phon",
    "4582" : "phant",
    "4583" : "ight.čĊ",
    "4584" : "Ġfact",
    "4585" : "inceĠ",
    "4586" : "yourĠf",
    "4587" : "es.čĊ4",
    "4588" : "strength",
    "4589" : "incred",
    "4590" : "data.čĊ",
    "4591" : "aĠlevel",
    "4592" : "eĠwereĠ",
    "4593" : "enseĠofĠ",
    "4594" : "Ġapprec",
    "4595" : "everal",
    "4596" : "oundĠtheĠ",
    "4597" : "way.čĊ",
    "4598" : "itĠhasĠ",
    "4599" : "ugar",
    "4600" : ".ĠHeĠwasĠ",
    "4601" : ".ĠCh",
    "4602" : "ethicalĠ",
    "4603" : "Ġwhen",
    "4604" : "eĠisĠs",
    "4605" : "ingĠcampaign",
    "4606" : "onĠtheĠotherĠhand",
    "4607" : "interaction",
    "4608" : "humans",
    "4609" : "nameĠ",
    "4610" : "ĠtechnologiesĠ",
    "4611" : "story",
    "4612" : "notĠbeĠ",
    "4613" : "Ġchalleng",
    "4614" : "invit",
    "4615" : "čĊDescribeĠa",
    "4616" : "deforest",
    "4617" : ".ĠPro",
    "4618" : "problem.čĊ",
    "4619" : "Union",
    "4620" : "environmentĠandĠ",
    "4621" : "largestĠ",
    "4622" : "networkĠ",
    "4623" : "urround",
    "4624" : "sĠandĠtheĠ",
    "4625" : "renhe",
    "4626" : "boil",
    "4627" : "ĠthroughĠ",
    "4628" : "Ġassistant",
    "4629" : "structur",
    "4630" : "čĊIngredient",
    "4631" : "complexĠ",
    "4632" : "region",
    "4633" : "viewĠofĠtheĠ",
    "4634" : "regard",
    "4635" : "ympt",
    "4636" : ",ĠasĠwell",
    "4637" : "Ġseek",
    "4638" : "remind",
    "4639" : "beautyĠofĠ",
    "4640" : "nessĠandĠ",
    "4641" : "USĠ",
    "4642" : "paintingĠ",
    "4643" : "promis",
    "4644" : ":čĊĠĠĠĠĠĠĠĠ",
    "4645" : "exploreĠtheĠ",
    "4646" : "attleĠ",
    "4647" : "čĊNameĠthreeĠ",
    "4648" : "where",
    "4649" : "engagement",
    "4650" : "canĠbeĠusedĠtoĠ",
    "4651" : "rais",
    "4652" : "determineĠ",
    "4653" : "ĠaĠcompan",
    "4654" : "Ġbefor",
    "4655" : "identity",
    "4656" : "sentenceĠtoĠ",
    "4657" : "čĊNameĠfiveĠ",
    "4658" : "physicalĠ",
    "4659" : "journeyĠ",
    "4660" : "immigr",
    "4661" : "ahrenhe",
    "4662" : "clean",
    "4663" : "cientist",
    "4664" : "primar",
    "4665" : "Ġcharacter",
    "4666" : "print(",
    "4667" : "governmentĠ",
    "4668" : "enabledĠ",
    "4669" : "innovation",
    "4670" : "ĠairĠpollution",
    "4671" : "beginn",
    "4672" : "ruption",
    "4673" : "ĠdoĠyou",
    "4674" : "peaceful",
    "4675" : "habitat",
    "4676" : "thesisĠ",
    "4677" : "Ġappear",
    "4678" : "possibl",
    "4679" : "Ġbecaus",
    "4680" : "Ġstructur",
    "4681" : "čĊCategorizeĠtheĠ",
    "4682" : "breez",
    "4683" : "differencesĠbetween",
    "4684" : "bigg",
    "4685" : "classroom",
    "4686" : "moothi",
    "4687" : "athematic",
    "4688" : "čĊOnceĠuponĠaĠtime,Ġther",
    "4689" : "Ġargument",
    "4690" : "Ġscientist",
    "4691" : "ribution",
    "4692" : "ĠtablespoonsĠ",
    "4693" : "ĠacrossĠtheĠ",
    "4694" : "Worl",
    "4695" : "understandĠ",
    "4696" : "embrac",
    "4697" : "emphasiz",
    "4698" : "juic",
    "4699" : "composedĠ",
    "4700" : "navig",
    "4701" : "ilosop",
    "4702" : "ps://",
    "4703" : "ymptom",
    "4704" : "https://",
    "4705" : "ĠK",
    "4706" : "ĠU",
    "4707" : "-in",
    "4708" : "80",
    "4709" : "2,Ġ",
    "4710" : "A-",
    "4711" : "AR",
    "4712" : ")ĠčĊ",
    "4713" : ",ĠtheyĠ",
    "4714" : "Gu",
    "4715" : "Dis",
    "4716" : "-power",
    "4717" : "Ger",
    "4718" : "No",
    "4719" : "Oc",
    "4720" : "-friend",
    "4721" : "Jul",
    "4722" : "Educ",
    "4723" : "Sc",
    "4724" : "Mar",
    "4725" : "Pres",
    "4726" : "-driv",
    "4727" : "'ll",
    "4728" : "e'",
    "4729" : "ctĠ",
    "4730" : "eed",
    "4731" : "eem",
    "4732" : "bound",
    "4733" : "pin",
    "4734" : "nation",
    "4735" : "byĠs",
    "4736" : "wa",
    "4737" : "kind",
    "4738" : "wr",
    "4739" : "mend",
    "4740" : "-to",
    "4741" : "vest",
    "4742" : "yĠand",
    "4743" : "iusĠ",
    "4744" : "jok",
    "4745" : "y,Ġs",
    "4746" : "raw",
    "4747" : "sĠtheyĠ",
    "4748" : "gold",
    "4749" : "hold",
    "4750" : "rgan",
    "4751" : "master",
    "4752" : "TechnologyĠ",
    "4753" : "cuss",
    "4754" : "ield",
    "4755" : "s.ĠAI",
    "4756" : "machin",
    "4757" : "SEO",
    "4758" : "document",
    "4759" : "mistak",
    "4760" : "Window",
    "4761" : "pandem",
    "4762" : "feder",
    "4763" : "fashion",
    "4764" : "paperĠ",
    "4765" : "Ġtri",
    "4766" : "infr",
    "4767" : "ann",
    "4768" : "ates",
    "4769" : "Ġareas",
    "4770" : "itu",
    "4771" : "erob",
    "4772" : ".čĊT",
    "4773" : "ingĠan",
    "4774" : "itĠtoĠ",
    "4775" : ",ĠE",
    "4776" : ",ĠP",
    "4777" : "sĠwer",
    "4778" : "ankĠ",
    "4779" : "čĊUn",
    "4780" : "yĠfor",
    "4781" : "reallyĠ",
    "4782" : "Ġtalk",
    "4783" : "heĠwas",
    "4784" : "ingĠb",
    "4785" : "entĠandĠ",
    "4786" : "ousĠs",
    "4787" : "alia",
    "4788" : "Ġsearch",
    "4789" : "Ġsuit",
    "4790" : "askĠ",
    "4791" : "elin",
    "4792" : "chit",
    "4793" : "ilt",
    "4794" : "ed,ĠandĠ",
    "4795" : "ive,Ġ",
    "4796" : "urs",
    "4797" : "ĠĠF",
    "4798" : "ĠĠG",
    "4799" : "imul",
    "4800" : "ofĠaĠt",
    "4801" : "prob",
    "4802" : "edication",
    "4803" : "stit",
    "4804" : "Ġschool",
    "4805" : "star",
    "4806" : "Ġclos",
    "4807" : "esĠit",
    "4808" : "lostĠ",
    "4809" : "ationčĊ",
    "4810" : "igu",
    "4811" : "refle",
    "4812" : "Ġwer",
    "4813" : "eĠtechnolog",
    "4814" : "ingĠtechniqu",
    "4815" : "Ġind",
    "4816" : "hare",
    "4817" : "ĠaĠfew",
    "4818" : "umb",
    "4819" : "Ġmil",
    "4820" : "Ġtoday",
    "4821" : "Ġdel",
    "4822" : "Ġinput",
    "4823" : "essayĠ",
    "4824" : "ĠinĠtheĠc",
    "4825" : "stock",
    "4826" : "eĠso",
    "4827" : ":ĠF",
    "4828" : "ĠstayĠ",
    "4829" : "eĠsoĠ",
    "4830" : "perfect",
    "4831" : "opic",
    "4832" : "notic",
    "4833" : "ĠmachineĠlearn",
    "4834" : "robotĠ",
    "4835" : "Ġcustomers",
    "4836" : "Ġtemperature",
    "4837" : "conf",
    "4838" : "Ġmax",
    "4839" : "Ġdriv",
    "4840" : "comingĠ",
    "4841" : "eĠsomeĠ",
    "4842" : "Ġmethod",
    "4843" : "estic",
    "4844" : "remot",
    "4845" : "headĠ",
    "4846" : "epar",
    "4847" : "ancedĠ",
    "4848" : "inĠtheĠworld",
    "4849" : "anceĠof",
    "4850" : "being",
    "4851" : "ĠisĠtheĠs",
    "4852" : "indĠtheĠ",
    "4853" : "orĠofĠ",
    "4854" : "endedĠ",
    "4855" : "param",
    "4856" : "ĠtheĠsk",
    "4857" : "čĊDis",
    "4858" : "ĠtheĠsun",
    "4859" : "edĠtoĠbeĠ",
    "4860" : "Ġaspect",
    "4861" : "moreĠc",
    "4862" : "previ",
    "4863" : "stress",
    "4864" : "ĠtheirĠm",
    "4865" : "incent",
    "4866" : "čĊ-ĠWhat",
    "4867" : "helpful",
    "4868" : "eĠwill",
    "4869" : "independ",
    "4870" : "čĊ1.ĠD",
    "4871" : "engineĠ",
    "4872" : "Ġadjectiv",
    "4873" : "aturalĠ",
    "4874" : "ĠtimeĠandĠ",
    "4875" : "energy,Ġ",
    "4876" : "ableĠtoĠ",
    "4877" : "drink",
    "4878" : "vibr",
    "4879" : "eĠwillĠ",
    "4880" : "sĠcreat",
    "4881" : "overallĠ",
    "4882" : "manip",
    "4883" : "creatingĠ",
    "4884" : "ingĠcanĠbeĠ",
    "4885" : "ailyĠ",
    "4886" : "persu",
    "4887" : "interpre",
    "4888" : "extra",
    "4889" : "čĊCreateĠaĠs",
    "4890" : "internet",
    "4891" : "name,Ġ",
    "4892" : "interactĠ",
    "4893" : "berg",
    "4894" : "givenĠtopic",
    "4895" : "AIĠ",
    "4896" : "ĠlanguageĠ",
    "4897" : "equip",
    "4898" : "Ġstorm",
    "4899" : "relig",
    "4900" : ".ĠInt",
    "4901" : "ĠinĠrang",
    "4902" : "relatedĠ",
    "4903" : "Ġchoic",
    "4904" : ".ĠFirst",
    "4905" : "alytic",
    "4906" : "ĠtheĠtre",
    "4907" : "hash",
    "4908" : "increasinglyĠ",
    "4909" : "effectsĠofĠ",
    "4910" : "usedĠinĠtheĠ",
    "4911" : "usedĠforĠ",
    "4912" : "request",
    "4913" : "planetĠ",
    "4914" : "ledĠtheĠ",
    "4915" : "order.čĊ",
    "4916" : "effectsĠofĠclimateĠchang",
    "4917" : ".ĠDespit",
    "4918" : "čĊInĠtheĠ",
    "4919" : "ĠanĠindividual",
    "4920" : "willĠb",
    "4921" : "doctor",
    "4922" : "fund",
    "4923" : "largeĠamount",
    "4924" : "achineĠLearn",
    "4925" : "wordĠ'",
    "4926" : "energyĠisĠ",
    "4927" : "wasĠtheĠ",
    "4928" : "homes",
    "4929" : "discount",
    "4930" : "Ġanalytic",
    "4931" : "buy",
    "4932" : "whoĠisĠ",
    "4933" : "ĠcontentĠ",
    "4934" : "čĊAndĠ",
    "4935" : "defin",
    "4936" : "iodĠ",
    "4937" : "Ġacid",
    "4938" : "resourcesĠ",
    "4939" : "icallyĠcorrect",
    "4940" : "protection",
    "4941" : "followingĠtext",
    "4942" : "labeledĠ",
    "4943" : "Ġconserv",
    "4944" : "input.čĊ",
    "4945" : "Ġconsider",
    "4946" : "numberĠof",
    "4947" : "ecurity",
    "4948" : "exampleĠof",
    "4949" : "Ġactivity",
    "4950" : "Ġarticle",
    "4951" : "ĠarticleĠ",
    "4952" : "čĊOur",
    "4953" : "čĊOut",
    "4954" : "Ġaffect",
    "4955" : "possible",
    "4956" : "vegetabl",
    "4957" : "vegetari",
    "4958" : "overĠmedi",
    "4959" : "peopleĠtoĠ",
    "4960" : "machineĠlearningĠalgorithm",
    "4961" : "inux",
    "4962" : "ĠminutesĠ",
    "4963" : ".ĠWhatĠ",
    "4964" : "sĠcanĠalsoĠ",
    "4965" : "optimization",
    "4966" : "practiceĠ",
    "4967" : "eĠaboutĠtheĠ",
    "4968" : "necessary",
    "4969" : "Ġdeath",
    "4970" : "čĊThreeĠ",
    "4971" : "essential",
    "4972" : "Ġinterest",
    "4973" : ".ĠOneĠday",
    "4974" : "čĊConstructĠaĠ",
    "4975" : "communicationĠskill",
    "4976" : "becomingĠ",
    "4977" : "feedbackĠ",
    "4978" : "classifi",
    "4979" : "ircleĠ",
    "4980" : "eĠanĠexampleĠofĠaĠ",
    "4981" : "oftware",
    "4982" : "renewableĠenergyĠsourc",
    "4983" : "returnĠFals",
    "4984" : "čĊClassifyĠtheĠfollowingĠ",
    "4985" : "\",Ġ\"",
    "4986" : "givenĠsentence.čĊ",
    "4987" : "leftĠ",
    "4988" : "gentleĠ",
    "4989" : "pervisedĠlearningĠ",
    "4990" : "relevantĠ",
    "4991" : "čĊStepĠ",
    "4992" : "ĠavailableĠ",
    "4993" : "ocialĠmediaĠplatform",
    "4994" : "s,ĠincludingĠ",
    "4995" : "volum",
    "4996" : "larativ",
    "4997" : "yourĠblog",
    "4998" : "flexibility",
    "4999" : "yogurt",
    "5000" : "esterday",
    "5001" : "ĠmarketĠ",
    "5002" : "Canada",
    "5003" : "virtualĠ",
    "5004" : "Python",
    "5005" : "čĊChangeĠtheĠ",
    "5006" : "Ġapplianc",
    "5007" : "damag",
    "5008" : "rogativ",
    "5009" : "punctuation",
    "5010" : "ĠinĠrange(",
    "5011" : "(C",
    "5012" : ".5",
    "5013" : "ĠonĠ",
    "5014" : "1Ġ",
    "5015" : "1,",
    "5016" : "13",
    "5017" : ",Ġth",
    "5018" : "67",
    "5019" : ",čĊA",
    "5020" : "Ġvalu",
    "5021" : "7,Ġ",
    "5022" : "CT",
    "5023" : "-bas",
    "5024" : "Do",
    "5025" : "Of",
    "5026" : ">čĊĠĠĠĠ",
    "5027" : "Jun",
    "5028" : "SS",
    "5029" : "Mak",
    "5030" : "Pre",
    "5031" : "?\"čĊ",
    "5032" : "Tak",
    "5033" : "e.",
    "5034" : "\\fr",
    "5035" : "Austr",
    "5036" : "IĠwasĠ",
    "5037" : "cel",
    "5038" : "e.Ġ",
    "5039" : "bow",
    "5040" : "mi",
    "5041" : "1,Ġ2",
    "5042" : "gas",
    "5043" : "hal",
    "5044" : "cell",
    "5045" : "bonĠ",
    "5046" : "ps",
    "5047" : "ling",
    "5048" : "rh",
    "5049" : "lingĠ",
    "5050" : "got",
    "5051" : "hill",
    "5052" : "oat",
    "5053" : "e.ĠItĠ",
    "5054" : "w.",
    "5055" : "may",
    "5056" : "pha",
    "5057" : "ton",
    "5058" : "uis",
    "5059" : "rist",
    "5060" : "}{",
    "5061" : "tenĠ",
    "5062" : "voc",
    "5063" : "ry.čĊ",
    "5064" : "diet",
    "5065" : "host",
    "5066" : "yetĠ",
    "5067" : "Gats",
    "5068" : "wareĠ",
    "5069" : "textĠ",
    "5070" : "kindĠ",
    "5071" : "hardĠ",
    "5072" : "ufact",
    "5073" : "Name",
    "5074" : "piredĠ",
    "5075" : "bowl",
    "5076" : "liter",
    "5077" : "Tooth",
    "5078" : "averageĠ",
    "5079" : "furnit",
    "5080" : "uzz",
    "5081" : "eĠ#",
    "5082" : "eĠA",
    "5083" : "čĊ8",
    "5084" : "vitam",
    "5085" : "čĊ[",
    "5086" : "inct",
    "5087" : "erčĊ",
    "5088" : "eral",
    "5089" : "eĠonĠ",
    "5090" : "Ġtend",
    "5091" : "sĠhav",
    "5092" : "atesĠ",
    "5093" : ".čĊW",
    "5094" : "ingĠst",
    "5095" : ",ĠM",
    "5096" : "sĠinclud",
    "5097" : "sĠwhich",
    "5098" : "eĠproblem",
    "5099" : "Ġslow",
    "5100" : "esĠtheĠs",
    "5101" : "oftĠ",
    "5102" : "Ġsiz",
    "5103" : "itĠis",
    "5104" : "Ġsort",
    "5105" : "es,ĠtheĠ",
    "5106" : "sĠforĠtheĠ",
    "5107" : "isk",
    "5108" : "alityĠ",
    "5109" : "enjo",
    "5110" : "oryĠofĠ",
    "5111" : "icĠcom",
    "5112" : "omet",
    "5113" : "ions,Ġ",
    "5114" : "orĠservic",
    "5115" : "asĠaĠ",
    "5116" : "leag",
    "5117" : "enalt",
    "5118" : "Ġthing",
    "5119" : "itĠwasĠ",
    "5120" : "ingĠun",
    "5121" : "ĠawayĠ",
    "5122" : ".ĠUn",
    "5123" : "eldĠ",
    "5124" : "lop",
    "5125" : "eĠther",
    "5126" : "Ġsuccess",
    "5127" : "edĠc",
    "5128" : "edčĊ",
    "5129" : "revers",
    "5130" : "edit",
    "5131" : "edent",
    "5132" : "olk",
    "5133" : "ingĠforĠaĠ",
    "5134" : "forĠaĠc",
    "5135" : "ingĠisĠaĠ",
    "5136" : "leepĠ",
    "5137" : "Ġclov",
    "5138" : "Ġcost",
    "5139" : "ingĠyourĠ",
    "5140" : "Ġcould",
    "5141" : "ĠcustomerĠ",
    "5142" : "still",
    "5143" : "emor",
    "5144" : "leastĠ",
    "5145" : "usingĠa",
    "5146" : "ureĠto",
    "5147" : "ĠweĠ",
    "5148" : "ately",
    "5149" : "thĠc",
    "5150" : "impleĠ",
    "5151" : "unt",
    "5152" : "immer",
    "5153" : "sĠbetweenĠ",
    "5154" : "chair",
    "5155" : "ample",
    "5156" : "ac{",
    "5157" : "ecom",
    "5158" : "abb",
    "5159" : "ampleĠ",
    "5160" : "Ġdi",
    "5161" : "Ġback",
    "5162" : "ĠareĠa",
    "5163" : "ifyĠtheĠ",
    "5164" : "forward",
    "5165" : "irusĠ",
    "5166" : "eĠanĠin",
    "5167" : "Ġali",
    "5168" : "ourĠd",
    "5169" : "ĠandĠan",
    "5170" : "explan",
    "5171" : "Ġmov",
    "5172" : "umĠofĠtheĠ",
    "5173" : "eĠsentenc",
    "5174" : "Ġalway",
    "5175" : "abric",
    "5176" : "italĠofĠ",
    "5177" : "čĊTheĠmostĠ",
    "5178" : "chicken",
    "5179" : "unknown",
    "5180" : "dueĠto",
    "5181" : "istr",
    "5182" : "ĠĠĠĠF",
    "5183" : "eptĠ",
    "5184" : "feet",
    "5185" : "mother",
    "5186" : "isticĠ",
    "5187" : "pectiv",
    "5188" : "lookĠ",
    "5189" : "gric",
    "5190" : "čĊAI",
    "5191" : "sĠandĠotherĠ",
    "5192" : "grand",
    "5193" : "ocol",
    "5194" : "encounter",
    "5195" : ".ĠTak",
    "5196" : "expressĠ",
    "5197" : "e,Ġwhich",
    "5198" : "čĊI'",
    "5199" : "followingĠc",
    "5200" : "čĊGiveĠ",
    "5201" : "endĠtheĠ",
    "5202" : "connectĠ",
    "5203" : "čĊSE",
    "5204" : "weather",
    "5205" : "eĠcanĠb",
    "5206" : "periodĠ",
    "5207" : "čĊSort",
    "5208" : "iesĠthat",
    "5209" : "čĊData",
    "5210" : "iesĠareĠ",
    "5211" : "ĠaĠsuccessful",
    "5212" : "givingĠ",
    "5213" : "eĠdevelop",
    "5214" : "phoneĠ",
    "5215" : "ĠtheirĠd",
    "5216" : "Ġfac",
    "5217" : "Ġflow",
    "5218" : "Ġfoc",
    "5219" : "apabilities",
    "5220" : "lyĠtoĠ",
    "5221" : "ustomersĠtoĠ",
    "5222" : "Ġshould",
    "5223" : "eĠdifficult",
    "5224" : "Ġadjust",
    "5225" : "ulture",
    "5226" : "bringĠ",
    "5227" : ",ĠandĠaĠ",
    "5228" : "brav",
    "5229" : "es,Ġinclud",
    "5230" : "čĊToĠ",
    "5231" : "brightĠ",
    "5232" : "ensureĠ",
    "5233" : "overall",
    "5234" : "čĊ1.ĠG",
    "5235" : "ĠtimeĠtoĠ",
    "5236" : ".ĠHisĠ",
    "5237" : "recordĠ",
    "5238" : "čĊGenerateĠan",
    "5239" : "many",
    "5240" : "ingĠcar",
    "5241" : ".ĠHeat",
    "5242" : "Ġlin",
    "5243" : "bridg",
    "5244" : "ingĠcustomerĠ",
    "5245" : "iblyĠ",
    "5246" : "healthĠ",
    "5247" : "Ins",
    "5248" : "virus",
    "5249" : "interact",
    "5250" : "ibilityĠ",
    "5251" : "humanĠb",
    "5252" : "higher",
    "5253" : ".ĠWrit",
    "5254" : "ĠtoĠsaveĠ",
    "5255" : "Ġtimelin",
    "5256" : "haveĠbeen",
    "5257" : ".ĠThisĠisĠ",
    "5258" : "berri",
    "5259" : "shin",
    "5260" : "increasingĠ",
    "5261" : "ingĠandĠs",
    "5262" : "ĠstoreĠ",
    "5263" : "10Ġ",
    "5264" : "moreĠlikelyĠtoĠ",
    "5265" : "ĠallowsĠfor",
    "5266" : "minut",
    "5267" : "conserv",
    "5268" : "ĠtheirĠown",
    "5269" : "ĠtheĠtwoĠ",
    "5270" : ".ĠDe",
    "5271" : "contribut",
    "5272" : ".ĠDur",
    "5273" : "relatedĠtoĠ",
    "5274" : "flict",
    "5275" : "environment.čĊ",
    "5276" : "greatĠway",
    "5277" : "forĠtheĠfollowingĠ",
    "5278" : "čĊMan",
    "5279" : ".ĠPeo",
    "5280" : "Ġassess",
    "5281" : "ideaĠ",
    "5282" : "firm",
    "5283" : "čĊIns",
    "5284" : "čĊBrain",
    "5285" : "board",
    "5286" : "readyĠ",
    "5287" : "funn",
    "5288" : "Ġadventur",
    "5289" : "correctĠ",
    "5290" : "home",
    "5291" : "performanceĠ",
    "5292" : "patientĠ",
    "5293" : "lineĠforĠaĠ",
    "5294" : "ĠstudentĠ",
    "5295" : "benefitsĠ",
    "5296" : "creasedĠ",
    "5297" : "abilityĠto",
    "5298" : "questions",
    "5299" : "movement",
    "5300" : "concentr",
    "5301" : "meaningĠofĠtheĠ",
    "5302" : "Eng",
    "5303" : "definition",
    "5304" : "explic",
    "5305" : "ĠĠĠĠĠĠĠĠĠĠĠĠ",
    "5306" : "ecurityĠ",
    "5307" : "Ġaccomplish",
    "5308" : "atcherĠinĠtheĠ",
    "5309" : ".ĠLast",
    "5310" : "sĠwithoutĠ",
    "5311" : "familiar",
    "5312" : "oppingĠ",
    "5313" : "lectricĠ",
    "5314" : "marketingĠstrateg",
    "5315" : "studentĠ",
    "5316" : "hydr",
    "5317" : "offerĠ",
    "5318" : "lassification",
    "5319" : "Ġdiseas",
    "5320" : "ehold",
    "5321" : "powder",
    "5322" : "Ġweb",
    "5323" : "makingĠitĠ",
    "5324" : "raz",
    "5325" : "matterĠ",
    "5326" : "representativ",
    "5327" : "risks",
    "5328" : "potentialĠtoĠ",
    "5329" : "oneĠofĠtheĠmostĠ",
    "5330" : "čĊThre",
    "5331" : "distributedĠ",
    "5332" : "clear",
    "5333" : "detectĠ",
    "5334" : "Ang",
    "5335" : "measure",
    "5336" : "priateĠ",
    "5337" : "determineĠtheĠ",
    "5338" : "cientificĠ",
    "5339" : "primaryĠ",
    "5340" : "doĠnotĠ",
    "5341" : "precedent",
    "5342" : "meaningful",
    "5343" : "enablesĠ",
    "5344" : "Ġanalysis",
    "5345" : "ĠanyoneĠ",
    "5346" : "Ġtomorrow",
    "5347" : "hotos",
    "5348" : "consumption",
    "5349" : "čĊListĠtheĠ",
    "5350" : "eitherĠ",
    "5351" : "jungle",
    "5352" : "communic",
    "5353" : "riminalĠ",
    "5354" : "ĠsidesĠ",
    "5355" : "multipl",
    "5356" : "programmingĠlanguag",
    "5357" : "www.",
    "5358" : "recommendation",
    "5359" : "moment",
    "5360" : ":ĠHi",
    "5361" : ".ĠImprov",
    "5362" : "oudĠcomput",
    "5363" : "2020:Ġ",
    "5364" : "developmentĠofĠ",
    "5365" : "mobileĠ",
    "5366" : "pointĠ",
    "5367" : "easierĠtoĠ",
    "5368" : "weatherĠevent",
    "5369" : ".ĠOverall",
    "5370" : "harmon",
    "5371" : "čĊGivenĠtheĠinput,Ġ",
    "5372" : "enefitsĠofĠ",
    "5373" : "SouthĠAmeric",
    "5374" : "frequenc",
    "5375" : "liquid",
    "5376" : "ĠinvolvesĠ",
    "5377" : "extremeĠweatherĠevent",
    "5378" : "hidden",
    "5379" : "grammaticallyĠcorrect",
    "5380" : "preventĠ",
    "5381" : "librar",
    "5382" : "British",
    "5383" : "wonder",
    "5384" : "observ",
    "5385" : "Japan",
    "5386" : "lonel",
    "5387" : "forĠiĠinĠrange(",
    "5388" : "incentiv",
    "5389" : "persuas",
    "5390" : "čĊOutlin",
    "5391" : "phabet",
    "5392" : "Toothbrush",
    "5393" : "\\frac{",
    "5394" : "ĠI",
    "5395" : "):",
    "5396" : "\"ĠandĠ",
    "5397" : "1čĊ",
    "5398" : "3.čĊ",
    "5399" : "</",
    "5400" : "AB",
    "5401" : "Fl",
    "5402" : "Gr",
    "5403" : "ID",
    "5404" : "Big",
    "5405" : "?čĊA",
    "5406" : "'sĠto",
    "5407" : "Fut",
    "5408" : "OM",
    "5409" : "Ry",
    "5410" : "Up",
    "5411" : "Cath",
    "5412" : "InĠ",
    "5413" : "Pot",
    "5414" : "IĠcan",
    "5415" : "Servic",
    "5416" : "cas",
    "5417" : "eeĠ",
    "5418" : "dĠandĠ",
    "5419" : "eedĠ",
    "5420" : "cop",
    "5421" : "aĠisĠ",
    "5422" : "ging",
    "5423" : "cup",
    "5424" : "gun",
    "5425" : "e.ĠI",
    "5426" : "Batt",
    "5427" : "ham",
    "5428" : "s\"",
    "5429" : "IĠam",
    "5430" : "kid",
    "5431" : "flyĠ",
    "5432" : "cienc",
    "5433" : "mith",
    "5434" : "pal",
    "5435" : "WarĠ",
    "5436" : "rid",
    "5437" : "vic",
    "5438" : "ych",
    "5439" : "sčĊ-Ġ",
    "5440" : "yet",
    "5441" : "yĠto",
    "5442" : "pageĠ",
    "5443" : "s.ĠS",
    "5444" : "Att",
    "5445" : "ype",
    "5446" : "nia",
    "5447" : "yber",
    "5448" : "sĠthrough",
    "5449" : "pastĠ",
    "5450" : "dinn",
    "5451" : "page",
    "5452" : "windĠ",
    "5453" : "nationalĠ",
    "5454" : "mix",
    "5455" : "narr",
    "5456" : "burg",
    "5457" : "Twit",
    "5458" : "citiz",
    "5459" : "Econom",
    "5460" : "HTML",
    "5461" : "Fahrenhe",
    "5462" : "mysteriousĠ",
    "5463" : "MachineĠLearn",
    "5464" : "CatcherĠinĠtheĠ",
    "5465" : "ROM",
    "5466" : "čĊK",
    "5467" : "Ġtw",
    "5468" : "Ġtal",
    "5469" : "ene",
    "5470" : "inent",
    "5471" : "ork",
    "5472" : "orn",
    "5473" : "incom",
    "5474" : "Ġtell",
    "5475" : "enĠc",
    "5476" : "enĠtoĠ",
    "5477" : "ating",
    "5478" : "at.čĊ",
    "5479" : "ĠtableĠ",
    "5480" : "atus",
    "5481" : "iti",
    "5482" : ".čĊD",
    "5483" : ".čĊM",
    "5484" : ".Ġ\"",
    "5485" : "ingĠthat",
    "5486" : "Ġsit",
    "5487" : ",ĠL",
    "5488" : "ings,Ġ",
    "5489" : "reet",
    "5490" : "Ġsum",
    "5491" : "esĠanĠ",
    "5492" : "reef",
    "5493" : "es?čĊ",
    "5494" : "ing,Ġand",
    "5495" : "sĠinto",
    "5496" : "ĠandĠd",
    "5497" : "sĠinĠaĠ",
    "5498" : "icĠandĠ",
    "5499" : "inaryĠ",
    "5500" : "Ġsound",
    "5501" : ",Ġyou",
    "5502" : ",ĠorĠ",
    "5503" : "ingĠ(",
    "5504" : "ĠanotherĠ",
    "5505" : "yĠinĠ",
    "5506" : "ĠsoundĠ",
    "5507" : "Ġcall",
    "5508" : "čĊ\"TheĠ",
    "5509" : "sĠintoĠ",
    "5510" : "uses",
    "5511" : "sĠincludeĠ",
    "5512" : "ingĠfrom",
    "5513" : "eler",
    "5514" : "ingĠorĠ",
    "5515" : "ello",
    "5516" : "users",
    "5517" : "edĠa",
    "5518" : "ingĠitsĠ",
    "5519" : "Ġcare",
    "5520" : "edom",
    "5521" : "iveĠs",
    "5522" : "Ġcurr",
    "5523" : "edĠthatĠ",
    "5524" : "edĠfrom",
    "5525" : "edĠforĠ",
    "5526" : "edĠhisĠ",
    "5527" : "esĠisĠ",
    "5528" : "ether",
    "5529" : "erĠforĠ",
    "5530" : "ĠtitleĠ",
    "5531" : "the",
    "5532" : "amm",
    "5533" : "iger",
    "5534" : "ĠtoĠmakeĠ",
    "5535" : "imageĠ",
    "5536" : "ationsĠofĠ",
    "5537" : "iderĠ",
    "5538" : "propos",
    "5539" : "ĠtooĠ",
    "5540" : "unk",
    "5541" : "Ġwell",
    "5542" : "eĠtemperatur",
    "5543" : "ingĠoff",
    "5544" : ".ĠYou",
    "5545" : "unit",
    "5546" : "impress",
    "5547" : "ulyĠ",
    "5548" : "acc",
    "5549" : "ilitiesĠ",
    "5550" : "Ġblog",
    "5551" : "ollect",
    "5552" : "ĠartĠ",
    "5553" : "Ġcampaign",
    "5554" : "Ġcoffe",
    "5555" : "eremon",
    "5556" : "evil",
    "5557" : "Ġtarget",
    "5558" : "noth",
    "5559" : ":ĠD",
    "5560" : "children",
    "5561" : "leverag",
    "5562" : "ĠwaterĠ",
    "5563" : "ally.čĊ",
    "5564" : "ĠmustĠ",
    "5565" : "ĠthatĠcan",
    "5566" : "ter,Ġ",
    "5567" : "conv",
    "5568" : "Ġtouch",
    "5569" : "eĠservic",
    "5570" : ",ĠandĠotherĠ",
    "5571" : "Ġmean",
    "5572" : "est.čĊ",
    "5573" : "relyĠon",
    "5574" : "anĠM",
    "5575" : "ightĠofĠ",
    "5576" : "enomen",
    "5577" : "Ġanalog",
    "5578" : "izz",
    "5579" : "Ġdescription",
    "5580" : "s,ĠorĠ",
    "5581" : "s,Ġwhich",
    "5582" : "e.čĊSheĠ",
    "5583" : "eĠandĠotherĠ",
    "5584" : "essay.čĊ",
    "5585" : "Ġindividual",
    "5586" : "anceĠandĠ",
    "5587" : "beat",
    "5588" : "ityčĊ",
    "5589" : "application",
    "5590" : "ĠareĠyou",
    "5591" : "weight",
    "5592" : "youĠareĠ",
    "5593" : ",ĠsheĠ",
    "5594" : "portion",
    "5595" : "Ġconf",
    "5596" : "Ġconv",
    "5597" : "logo",
    "5598" : "Ġcompet",
    "5599" : "eĠofĠitsĠ",
    "5600" : "čĊIĠam",
    "5601" : "oday",
    "5602" : "eĠcustomer",
    "5603" : "otalĠc",
    "5604" : "Ġteen",
    "5605" : "more.čĊ",
    "5606" : "outdoor",
    "5607" : "Ġadult",
    "5608" : "earth",
    "5609" : ",ĠsuchĠas",
    "5610" : "Ġfel",
    "5611" : "makeĠtheĠ",
    "5612" : "ĠtheirĠf",
    "5613" : "newĠs",
    "5614" : "makingĠs",
    "5615" : "endanger",
    "5616" : "prevent",
    "5617" : "Ġconclusion",
    "5618" : "Ġtraffic",
    "5619" : "data,Ġ",
    "5620" : "dataĠandĠ",
    "5621" : ".ĠčĊĠ",
    "5622" : "provideĠa",
    "5623" : "enseĠ",
    "5624" : "ension",
    "5625" : "eĠwater",
    "5626" : "black",
    "5627" : "ityĠisĠ",
    "5628" : ".ĠItĠwas",
    "5629" : "fully",
    "5630" : "čĊDetermin",
    "5631" : "ever-",
    "5632" : ".ĠServeĠ",
    "5633" : "Ġattr",
    "5634" : "čĊRes",
    "5635" : "howĠtoĠ",
    "5636" : "redit",
    "5637" : "reducingĠ",
    "5638" : "argetĠ",
    "5639" : "ogg",
    "5640" : "easily",
    "5641" : "givenĠdata",
    "5642" : "expert",
    "5643" : "čĊĠĠĠĠreturn",
    "5644" : "display",
    "5645" : "Ġlaptop",
    "5646" : "čĊĠĠĠĠreturnĠ",
    "5647" : "ĠtheĠcurrentĠ",
    "5648" : "e,ĠasĠ",
    "5649" : "eĠthrough",
    "5650" : "ureĠofĠtheĠ",
    "5651" : "bledĠ",
    "5652" : "basicĠ",
    "5653" : "notĠinĠ",
    "5654" : "minor",
    "5655" : "life.čĊ",
    "5656" : "life,Ġ",
    "5657" : "mainten",
    "5658" : "getĠtheĠ",
    "5659" : "presenc",
    "5660" : "hasĠalsoĠ",
    "5661" : "contactĠ",
    "5662" : "equival",
    "5663" : ".ĠEach",
    "5664" : "poll",
    "5665" : ".ĠButĠ",
    "5666" : "deepĠlearn",
    "5667" : "youĠhav",
    "5668" : "ĠčĊ4",
    "5669" : "sĠinĠtheĠs",
    "5670" : "largeĠs",
    "5671" : "ĠanĠint",
    "5672" : "colorĠ",
    "5673" : "potentiallyĠ",
    "5674" : ".ĠEvery",
    "5675" : "products",
    "5676" : "collect",
    "5677" : "pecificĠ",
    "5678" : "human-",
    "5679" : "edĠtheĠwayĠ",
    "5680" : "IĠhad",
    "5681" : "variableĠ",
    "5682" : "čĊGenerateĠaĠlistĠof",
    "5683" : "rangeĠof",
    "5684" : "longest",
    "5685" : "čĊExplainĠhow",
    "5686" : "basedĠonĠ",
    "5687" : "neededĠ",
    "5688" : "needsĠandĠ",
    "5689" : "needsĠofĠ",
    "5690" : "čĊInstruction",
    "5691" : "facialĠ",
    "5692" : "doesĠnotĠ",
    "5693" : "canĠhelp",
    "5694" : "ost-",
    "5695" : "predictĠ",
    "5696" : ".ĠMak",
    "5697" : "organiz",
    "5698" : "wasĠaĠ",
    "5699" : "makeĠprediction",
    "5700" : "understandĠtheĠ",
    "5701" : "understandingĠtheĠ",
    "5702" : "pair",
    "5703" : ".ĠRe",
    "5704" : "pared",
    "5705" : ".ĠRes",
    "5706" : "playingĠ",
    "5707" : "playerĠ",
    "5708" : "ĠdataĠandĠ",
    "5709" : "prote",
    "5710" : "passiveĠvoic",
    "5711" : "sĠtoĠaĠ",
    "5712" : ".ĠRobot",
    "5713" : "defeat",
    "5714" : "ĠaĠdat",
    "5715" : "protagon",
    "5716" : "čĊAnswer",
    "5717" : "family",
    "5718" : "altĠandĠ",
    "5719" : "čĊPropos",
    "5720" : "decision-mak",
    "5721" : "ĠaccuratelyĠ",
    "5722" : "depth",
    "5723" : "endĠofĠ",
    "5724" : "eĠtravel",
    "5725" : "atoryĠ",
    "5726" : "future.čĊ",
    "5727" : "čĊNameĠtheĠ",
    "5728" : "Ġarticle.čĊ",
    "5729" : "echn",
    "5730" : "Ġmanag",
    "5731" : "happiness",
    "5732" : "atograph",
    "5733" : "ĠandĠcookĠ",
    "5734" : "plantsĠ",
    "5735" : "whereĠtheĠ",
    "5736" : "Ġarea",
    "5737" : "ustainability",
    "5738" : "čĊWriteĠaĠshort",
    "5739" : "recogniz",
    "5740" : "performance.čĊ",
    "5741" : "romant",
    "5742" : "mosphereĠ",
    "5743" : "Earth'sĠ",
    "5744" : "ontoĠ",
    "5745" : "ĠcomputerĠscienc",
    "5746" : "wouldĠbeĠ",
    "5747" : "Earth's",
    "5748" : "eĠshouldĠbeĠ",
    "5749" : "explainĠtheĠ",
    "5750" : "renewableĠsourc",
    "5751" : "lesson",
    "5752" : "čĊ-Ġ1Ġcup",
    "5753" : "sentenceĠisĠ",
    "5754" : "reveal",
    "5755" : "dividualĠ",
    "5756" : "ruct",
    "5757" : "Ġdeb",
    "5758" : "ensureĠthat",
    "5759" : "entralĠ",
    "5760" : "čĊIdentifyĠtheĠtyp",
    "5761" : "biod",
    "5762" : "cluster",
    "5763" : "particip",
    "5764" : "opportunities",
    "5765" : "opportunitiesĠ",
    "5766" : "ĠincludeĠ",
    "5767" : "ananaĠ",
    "5768" : "opportunityĠtoĠ",
    "5769" : "everyon",
    "5770" : "ĠcharacterĠ",
    "5771" : "impactĠonĠ",
    "5772" : "politicalĠ",
    "5773" : "political",
    "5774" : "chemicalĠ",
    "5775" : "demandĠ",
    "5776" : "eĠapplication",
    "5777" : "čĊIĠrecentlyĠ",
    "5778" : "receiveĠ",
    "5779" : "givenĠsentenceĠ",
    "5780" : "music",
    "5781" : "Ġinsight",
    "5782" : "junction",
    "5783" : "vehicl",
    "5784" : "Confeder",
    "5785" : "nounc",
    "5786" : "holid",
    "5787" : "plasticĠwast",
    "5788" : "electricityĠ",
    "5789" : "eĠaccessĠtoĠ",
    "5790" : "globalĠwarming.čĊ",
    "5791" : "milk",
    "5792" : "|čĊ|",
    "5793" : "loyaltyĠ",
    "5794" : "ĠanimalĠ",
    "5795" : "Ġanimals",
    "5796" : "athemat",
    "5797" : "ĠaccordingĠto",
    "5798" : "bodyĠ",
    "5799" : "ailedĠ",
    "5800" : "widelyĠ",
    "5801" : "rypt",
    "5802" : "install",
    "5803" : "ĠtheĠcorrectĠ",
    "5804" : "mobil",
    "5805" : "photos",
    "5806" : "LECT",
    "5807" : "čĊDesignĠaĠlogoĠ",
    "5808" : "particularlyĠ",
    "5809" : "čĊExplainĠtheĠconceptĠofĠ",
    "5810" : "EuropeanĠ",
    "5811" : "principle",
    "5812" : ",Ġ8,Ġ",
    "5813" : "čĊChatbot:Ġ",
    "5814" : "ialogu",
    "5815" : "eĠdifferentĠ",
    "5816" : "originalĠ",
    "5817" : "ockĠpric",
    "5818" : "3DĠ",
    "5819" : "čĊCompareĠandĠcontrastĠtheĠ",
    "5820" : "North",
    "5821" : "mploy",
    "5822" : "1999",
    "5823" : "(AI)",
    "5824" : "čĊ-Ġ1/2Ġcup",
    "5825" : "molecu",
    "5826" : "judg",
    "5827" : ".ĠOnĠtheĠotherĠhand",
    "5828" : "ĠaĠcreativeĠ",
    "5829" : "apole",
    "5830" : "garden",
    "5831" : "resilienc",
    "5832" : "whereasĠ",
    "5833" : "WorldĠ",
    "5834" : "-poweredĠ",
    "5835" : "wrong",
    "5836" : "Ocean",
    "5837" : "erobicĠ",
    "5838" : "ĠĠGĠĠ",
    "5839" : "https://www.",
    "5840" : "largeĠamountsĠofĠ",
    "5841" : "thĠcentur",
    "5842" : "precedentedĠ",
    "5843" : "čĊSELECT",
    "5844" : "lectricĠToothbrush",
    "5845" : "BattleĠofĠ",
    "5846" : "CatcherĠinĠtheĠRy",
    "5847" : "Ġ2",
    "5848" : "ĠH",
    "5849" : "\"H",
    "5850" : "('",
    "5851" : "'X",
    "5852" : "-2",
    "5853" : "-C",
    "5854" : "\"ĠisĠ",
    "5855" : "29",
    "5856" : "30",
    "5857" : "43",
    "5858" : "-or",
    "5859" : "48",
    "5860" : "5%",
    "5861" : "3}",
    "5862" : "4čĊ",
    "5863" : "5.čĊ",
    "5864" : "Ġlead",
    "5865" : "AN",
    "5866" : "(19",
    "5867" : "DP",
    "5868" : "5.ĠS",
    "5869" : "Ge",
    "5870" : "J.",
    "5871" : "Gener",
    "5872" : "Ġ|Ġ",
    "5873" : "MyĠ",
    "5874" : "Jav",
    "5875" : "Over",
    "5876" : "Your",
    "5877" : "].čĊ",
    "5878" : "e_",
    "5879" : "Vinc",
    "5880" : "i-",
    "5881" : "ban",
    "5882" : "bur",
    "5883" : "Link",
    "5884" : "bul",
    "5885" : "beĠtheĠ",
    "5886" : "dig",
    "5887" : "aud",
    "5888" : "afe",
    "5889" : "bleĠ",
    "5890" : "bud",
    "5891" : "glo",
    "5892" : "denĠ",
    "5893" : "crit",
    "5894" : "eep",
    "5895" : "fant",
    "5896" : "jur",
    "5897" : "Mark",
    "5898" : "dĠtheĠs",
    "5899" : "fight",
    "5900" : "ared",
    "5901" : "uk",
    "5902" : "pil",
    "5903" : "sor",
    "5904" : "som",
    "5905" : "rum",
    "5906" : "tag",
    "5907" : "iantĠ",
    "5908" : "yle",
    "5909" : "wall",
    "5910" : "mail",
    "5911" : "e\"čĊ",
    "5912" : "ovi",
    "5913" : "vanc",
    "5914" : "bread",
    "5915" : "freeĠ",
    "5916" : "pick",
    "5917" : "sĠtheĠc",
    "5918" : "lateĠtheĠ",
    "5919" : "text",
    "5920" : "e.ĠAdditionally,Ġ",
    "5921" : "catch",
    "5922" : "Tru",
    "5923" : "block",
    "5924" : "e!čĊ",
    "5925" : "ubs",
    "5926" : "ruit",
    "5927" : "sĠaboutĠ",
    "5928" : "e.ĠSheĠ",
    "5929" : "landĠ",
    "5930" : "circ",
    "5931" : "further",
    "5932" : "wrot",
    "5933" : "1/4",
    "5934" : "scap",
    "5935" : "averag",
    "5936" : "Revolution",
    "5937" : "gift",
    "5938" : "brown",
    "5939" : "n't",
    "5940" : "Afric",
    "5941" : "fasc",
    "5942" : "methodĠ",
    "5943" : "birth",
    "5944" : "selv",
    "5945" : "čĊs",
    "5946" : "Napole",
    "5947" : "fabric",
    "5948" : "eĠre",
    "5949" : "Ġten",
    "5950" : "enu",
    "5951" : "erĠtoĠ",
    "5952" : "Ġtreas",
    "5953" : "eĠbyĠ",
    "5954" : "sĠ-Ġ",
    "5955" : "Ġanc",
    "5956" : "atom",
    "5957" : "eĠwithĠ",
    "5958" : "ateĠt",
    "5959" : "sĠčĊ-Ġ",
    "5960" : ".čĊ4",
    "5961" : ".čĊC",
    "5962" : "ate,Ġ",
    "5963" : "onav",
    "5964" : "tĠB",
    "5965" : ",ĠA",
    "5966" : "onicĠ",
    "5967" : "orph",
    "5968" : "eĠinĠaĠ",
    "5969" : "ing.ĠTheĠ",
    "5970" : "itment",
    "5971" : "itorĠ",
    "5972" : "orial",
    "5973" : "ĠtheĠway",
    "5974" : "ingĠtoĠs",
    "5975" : "ous,Ġ",
    "5976" : "ingĠthisĠ",
    "5977" : "ĠamĠ",
    "5978" : "Ġcat",
    "5979" : "espec",
    "5980" : "iceĠc",
    "5981" : "entĠtoĠ",
    "5982" : "esmer",
    "5983" : "ĠtoĠM",
    "5984" : "ĠandĠhisĠ",
    "5985" : "isĠaĠs",
    "5986" : "lection",
    "5987" : "inĠwhich",
    "5988" : "entication",
    "5989" : "esĠatĠ",
    "5990" : "ential",
    "5991" : "forĠm",
    "5992" : "Ġthos",
    "5993" : "ĠsaveĠ",
    "5994" : "Ġthough",
    "5995" : "ely,Ġ",
    "5996" : "edĠthat",
    "5997" : "ilit",
    "5998" : "ivot",
    "5999" : "ilver",
    "6000" : "ĠĠ<",
    "6001" : "olar",
    "6002" : "lotĠofĠ",
    "6003" : "imper",
    "6004" : "esĠor",
    "6005" : "iciousĠ",
    "6006" : "Ġcalcul",
    "6007" : "ation:Ġ",
    "6008" : "ĠcustomerĠservic",
    "6009" : "leaveĠ",
    "6010" : "irr",
    "6011" : "irt",
    "6012" : "edĠinĠaĠ",
    "6013" : "Ġby",
    "6014" : "ify",
    "6015" : "ĠaĠgoodĠ",
    "6016" : "encil",
    "6017" : "ĠthingsĠ",
    "6018" : "ationĠofĠtheĠ",
    "6019" : "Ġspeech",
    "6020" : "čĊJohnĠ",
    "6021" : "ĠtoĠ12",
    "6022" : "ĠtoĠcomplet",
    "6023" : "edĠlist",
    "6024" : "irstĠ",
    "6025" : "Ġinch",
    "6026" : "Ġmed",
    "6027" : "abel",
    "6028" : "abet",
    "6029" : "umin",
    "6030" : "usingĠaĠs",
    "6031" : "thlet",
    "6032" : "ecureĠ",
    "6033" : "Ġsymbol",
    "6034" : "ĠĠ|Ġ",
    "6035" : ":ĠY",
    "6036" : ":Ġ[",
    "6037" : "evolv",
    "6038" : "whit",
    "6039" : "Ġsuppl",
    "6040" : "Ġansw",
    "6041" : "Ġarriv",
    "6042" : "terĠandĠ",
    "6043" : "fram",
    "6044" : "entĠofĠ",
    "6045" : "Ġinnov",
    "6046" : "Ġaltern",
    "6047" : "hear",
    "6048" : "vertĠ",
    "6049" : "Ġdevic",
    "6050" : "properĠ",
    "6051" : "oppress",
    "6052" : "efin",
    "6053" : "esticĠ",
    "6054" : "oward",
    "6055" : "ĠareĠableĠtoĠ",
    "6056" : "sĠandĠcon",
    "6057" : "interĠ",
    "6058" : "upĠtoĠ",
    "6059" : "format",
    "6060" : "outĠtoĠ",
    "6061" : "formalĠ",
    "6062" : "Ġannounc",
    "6063" : "fromĠtheĠs",
    "6064" : "beach",
    "6065" : ".ĠAsĠtheĠ",
    "6066" : "formĠof",
    "6067" : "Ġdefinition",
    "6068" : "weetĠ",
    "6069" : "ĠbasedĠonĠtheĠ",
    "6070" : "youĠtoĠ",
    "6071" : "havingĠaĠ",
    "6072" : "others",
    "6073" : "gression",
    "6074" : "Ġarchit",
    "6075" : "alĠreef",
    "6076" : "cloud",
    "6077" : "odayĠ",
    "6078" : "clickĠ",
    "6079" : "Ġabov",
    "6080" : "heldĠ",
    "6081" : "givesĠ",
    "6082" : "čĊSelect",
    "6083" : "strang",
    "6084" : "Ġfl",
    "6085" : "eĠofĠaĠs",
    "6086" : "eĠofĠaĠc",
    "6087" : "earlyĠ",
    "6088" : "postĠ",
    "6089" : "ingĠskill",
    "6090" : "newsĠ",
    "6091" : "yourĠm",
    "6092" : "newĠm",
    "6093" : "strugg",
    "6094" : "applic",
    "6095" : "eĠdevic",
    "6096" : "heightĠofĠ",
    "6097" : "ly,ĠtheĠ",
    "6098" : "martĠ",
    "6099" : "es.čĊ3",
    "6100" : "čĊ-ĠIm",
    "6101" : "ĠaĠsingleĠ",
    "6102" : "Ġcomparis",
    "6103" : "bless",
    "6104" : "čĊ1.ĠS",
    "6105" : "work.čĊ",
    "6106" : "enseĠof",
    "6107" : "eĠwalk",
    "6108" : "preferenc",
    "6109" : "sĠso",
    "6110" : "fullyĠ",
    "6111" : "blackĠ",
    "6112" : "čĊ1.ĠL",
    "6113" : "providesĠaĠ",
    "6114" : "ishĠ",
    "6115" : "sĠcouldĠ",
    "6116" : ".ĠItĠcanĠalsoĠ",
    "6117" : "recyc",
    "6118" : "philosop",
    "6119" : "sĠcaus",
    "6120" : "čĊEvalu",
    "6121" : "manageĠ",
    "6122" : "howĠtheĠ",
    "6123" : "ouslyĠ",
    "6124" : "čĊFin",
    "6125" : "red,Ġ",
    "6126" : "phenomen",
    "6127" : "reduceĠc",
    "6128" : "elephant",
    "6129" : "astruct",
    "6130" : "include:Ġ",
    "6131" : "followingĠword",
    "6132" : "=Ġ1",
    "6133" : "čĊTellĠm",
    "6134" : "meetĠ",
    "6135" : "lineĠofĠ",
    "6136" : "asket",
    "6137" : "atedĠbyĠ",
    "6138" : "moreĠefficientĠ",
    "6139" : "haveĠbeenĠ",
    "6140" : "improvement",
    "6141" : "valid",
    "6142" : "artificialĠ",
    "6143" : "čĊPers",
    "6144" : ".ĠFrom",
    "6145" : "basic",
    "6146" : "experimentĠ",
    "6147" : "importanceĠof",
    "6148" : "e,ĠthereĠ",
    "6149" : "perspectiv",
    "6150" : "ĠtheĠtask",
    "6151" : "ĠtakeĠaction",
    "6152" : "2019",
    "6153" : "čĊDescribeĠaĠ",
    "6154" : "successĠ",
    "6155" : ".ĠBe",
    "6156" : "gettingĠ",
    "6157" : "experiencesĠ",
    "6158" : "flavor",
    "6159" : "Ġpenalt",
    "6160" : "198",
    "6161" : "polarĠ",
    "6162" : "ĠcanĠprovideĠ",
    "6163" : "affe",
    "6164" : "orderĠto",
    "6165" : "čĊBr",
    "6166" : "timeĠ",
    "6167" : "ideĠofĠtheĠ",
    "6168" : "also",
    "6169" : "money",
    "6170" : "eters.čĊ",
    "6171" : "butter",
    "6172" : "čĊInt",
    "6173" : "e:Ġ\"",
    "6174" : "ismĠandĠ",
    "6175" : "e:ĠTheĠ",
    "6176" : "box",
    "6177" : "betweenĠtwoĠ",
    "6178" : "otherwis",
    "6179" : "limitedĠ",
    "6180" : "love,Ġ",
    "6181" : "ingĠatĠ",
    "6182" : "wash",
    "6183" : ".ĠThes",
    "6184" : "informationĠ",
    "6185" : "ĠtasksĠsuchĠasĠ",
    "6186" : "understandĠandĠ",
    "6187" : ".ĠIt'sĠ",
    "6188" : "items.čĊ",
    "6189" : "canĠleadĠtoĠ",
    "6190" : ".ĠItĠalsoĠ",
    "6191" : "event.čĊ",
    "6192" : "culpt",
    "6193" : "ĠstudyĠ",
    "6194" : "Ġcreativ",
    "6195" : "Christ",
    "6196" : "sĠareĠs",
    "6197" : "globalĠc",
    "6198" : "generation",
    "6199" : "friendsĠandĠ",
    "6200" : "esĠthatĠareĠ",
    "6201" : "eĠtheyĠ",
    "6202" : "lives",
    "6203" : "electr",
    "6204" : "version",
    "6205" : "resourcesĠandĠ",
    "6206" : "energyĠconsumption",
    "6207" : "results.čĊ",
    "6208" : ".ĠRenewableĠ",
    "6209" : "economicĠ",
    "6210" : "else",
    "6211" : "gluc",
    "6212" : "ecureĠandĠ",
    "6213" : "Ġconsequenc",
    "6214" : "electronic",
    "6215" : "čĊTheĠsun",
    "6216" : "poemĠ",
    "6217" : "feeling",
    "6218" : "objectiv",
    "6219" : "fieldĠ",
    "6220" : "historicalĠ",
    "6221" : "feelingĠofĠ",
    "6222" : "findĠtheĠ",
    "6223" : "ublic",
    "6224" : "deploy",
    "6225" : "I'dĠ",
    "6226" : "promotion",
    "6227" : "belief",
    "6228" : "186",
    "6229" : "rectang",
    "6230" : "eĠtraffic",
    "6231" : "Ġdifferent",
    "6232" : "happinessĠ",
    "6233" : "čĊGenerateĠaĠcreativeĠ",
    "6234" : "eĠadjectiv",
    "6235" : "company",
    "6236" : "čĊNameĠthre",
    "6237" : "ashĠflow",
    "6238" : "optimiz",
    "6239" : ".ĠWhatĠareĠtheĠ",
    "6240" : "aterĠpollution",
    "6241" : "rocess",
    "6242" : "him.čĊ",
    "6243" : "explainĠwh",
    "6244" : "joy!čĊ",
    "6245" : "physic",
    "6246" : "purposeĠofĠ",
    "6247" : "distanc",
    "6248" : "undan",
    "6249" : "ourageĠandĠ",
    "6250" : "itself",
    "6251" : "Ġcollect",
    "6252" : "powerfulĠ",
    "6253" : "FranceĠ",
    "6254" : "bias",
    "6255" : "webĠp",
    "6256" : "userĠinterfac",
    "6257" : "čĊHowĠwouldĠ",
    "6258" : "causedĠbyĠ",
    "6259" : "ĠcarbonĠdioxideĠ",
    "6260" : "ĠstoryĠabout",
    "6261" : "quicklyĠandĠaccur",
    "6262" : "ĠadditionalĠ",
    "6263" : "groupĠofĠ",
    "6264" : "powerĠofĠ",
    "6265" : "ananas",
    "6266" : "people.čĊ",
    "6267" : "Ġattack",
    "6268" : "layer",
    "6269" : "horiz",
    "6270" : "describeĠaĠ",
    "6271" : "personalization",
    "6272" : "classification",
    "6273" : "Ġattitud",
    "6274" : "electionĠofĠ",
    "6275" : "atisfi",
    "6276" : "demand",
    "6277" : "ĠbetweenĠtwoĠ",
    "6278" : "stepsĠtoĠ",
    "6279" : "don'tĠ",
    "6280" : "ĠintoĠtheĠ",
    "6281" : "figureĠ",
    "6282" : "abilityĠofĠ",
    "6283" : "American",
    "6284" : "array",
    "6285" : "mostĠs",
    "6286" : "industry",
    "6287" : "ĠarrayĠ",
    "6288" : "čĊArrang",
    "6289" : "begin",
    "6290" : "requiresĠ",
    "6291" : "čĊMakeĠaĠ",
    "6292" : "revolutionizedĠ",
    "6293" : "čĊCalculateĠtheĠareaĠ",
    "6294" : "excellent",
    "6295" : "essentialĠforĠ",
    "6296" : "DeepĠlearn",
    "6297" : "usedĠtoĠs",
    "6298" : "professional",
    "6299" : "ĠagainstĠ",
    "6300" : "čĊItĠisĠ",
    "6301" : "youngĠ",
    "6302" : "English.čĊ",
    "6303" : "maximum",
    "6304" : "umĠheat",
    "6305" : "blogĠpost",
    "6306" : "ĠagainstĠtheĠ",
    "6307" : "violenc",
    "6308" : "čĊTransform",
    "6309" : "ustomerĠserviceĠrepresentativ",
    "6310" : "eograph",
    "6311" : "rapid",
    "6312" : "(x+",
    "6313" : "restaurant.čĊ",
    "6314" : "čĊTranslateĠtheĠ",
    "6315" : "entimentĠanalys",
    "6316" : "responsibleĠforĠ",
    "6317" : "videoĠ",
    "6318" : "ĠthoseĠwhoĠ",
    "6319" : "numerousĠ",
    "6320" : "mitig",
    "6321" : "flood",
    "6322" : "ĠargumentĠ",
    "6323" : "čĊAdd",
    "6324" : "chatbot",
    "6325" : "čĊForm",
    "6326" : "decidedĠtoĠ",
    "6327" : "internetĠhasĠ",
    "6328" : "Apple",
    "6329" : "diverseĠ",
    "6330" : "pointĠofĠ",
    "6331" : "ĠmultipleĠ",
    "6332" : "GPTĠmodel",
    "6333" : "invention",
    "6334" : "fferĠ",
    "6335" : "s,ĠasĠwellĠasĠ",
    "6336" : "GPTĠlanguageĠ",
    "6337" : "enhanc",
    "6338" : "advantagesĠofĠ",
    "6339" : "deathĠpenalt",
    "6340" : "payment",
    "6341" : "node.",
    "6342" : "ĠdegreesĠ",
    "6343" : "==Ġ0",
    "6344" : "quantumĠcomput",
    "6345" : "hydrogen",
    "6346" : "PersonĠ",
    "6347" : "solut",
    "6348" : "Ġmonth",
    "6349" : "insteadĠ",
    "6350" : ".ĠInĠtheĠend",
    "6351" : "bottom",
    "6352" : ".ĠFinally,ĠtheĠ",
    "6353" : "ĠavoidĠ",
    "6354" : "necessaryĠtoĠ",
    "6355" : "Ġmetaphor",
    "6356" : "GlobalĠ",
    "6357" : "bloom",
    "6358" : "čĊDevelopĠaĠ",
    "6359" : "Ġfamil",
    "6360" : "nucle",
    "6361" : "etc.",
    "6362" : "Value",
    "6363" : "osĠAng",
    "6364" : "forecast",
    "6365" : "oceanĠ",
    "6366" : "complexĠproblem",
    "6367" : "-to-",
    "6368" : "pinach",
    "6369" : "NoinputčĊ",
    "6370" : "half",
    "6371" : "vegetarianĠd",
    "6372" : "rhym",
    "6373" : "overĠmediumĠheat",
    "6374" : ">čĊĠĠĠĠĠĠ<",
    "6375" : "icĠcompound",
    "6376" : "}{3}",
    "6377" : "ĠfocusesĠ",
    "6378" : ".ĠPeopleĠ",
    "6379" : "Ġaccomplishment",
    "6380" : "čĊInsert",
    "6381" : "čĊOutlineĠtheĠ",
    "6382" : "-orient",
    "6383" : "erobicĠexercis",
    "6384" : "Ġarchitect",
    "6385" : "GPTĠlanguageĠmodel",
    "6386" : "Ġ-",
    "6387" : "\"\"",
    "6388" : "Ġy",
    "6389" : ".9",
    "6390" : "1/",
    "6391" : "23",
    "6392" : "3,",
    "6393" : "54",
    "6394" : "--Ġ",
    "6395" : "3čĊ",
    "6396" : "3,Ġ",
    "6397" : ",ĠtheĠs",
    "6398" : "6,Ġ",
    "6399" : "!\"čĊ",
    "6400" : "ĠxĠ",
    "6401" : "AS",
    "6402" : "Br",
    "6403" : "Ca",
    "6404" : "Cl",
    "6405" : "ĠpeopleĠ",
    "6406" : "Go",
    "6407" : "Bar",
    "6408" : "Don",
    "6409" : "LP",
    "6410" : ",ĠaboutĠ",
    "6411" : "Ob",
    "6412" : "Hol",
    "6413" : "Mus",
    "6414" : "Mid",
    "6415" : "Mad",
    "6416" : "Num",
    "6417" : "Cov",
    "6418" : "Cub",
    "6419" : "Rob",
    "6420" : "Part",
    "6421" : "aĠandĠ",
    "6422" : "hi",
    "6423" : "2Ġ-Ġ",
    "6424" : "call",
    "6425" : "bust",
    "6426" : "dev",
    "6427" : "ile",
    "6428" : "beĠd",
    "6429" : "kin",
    "6430" : "ipl",
    "6431" : "iam",
    "6432" : "#Health",
    "6433" : "lion",
    "6434" : "m.čĊ",
    "6435" : "ianĠ",
    "6436" : "TextĠ",
    "6437" : "Small",
    "6438" : "sm",
    "6439" : "gasĠ",
    "6440" : "eableĠ",
    "6441" : "ligh",
    "6442" : "Viet",
    "6443" : "vo",
    "6444" : "leĠandĠ",
    "6445" : "hos",
    "6446" : "sĠa",
    "6447" : "SocialĠ",
    "6448" : "\\tim",
    "6449" : "theĠ",
    "6450" : "sid",
    "6451" : "sun",
    "6452" : "win",
    "6453" : "wal",
    "6454" : "verĠ",
    "6455" : "lack",
    "6456" : "zer",
    "6457" : "ry,Ġ",
    "6458" : "didĠ",
    "6459" : "Gett",
    "6460" : "1Ġteaspoon",
    "6461" : "y:Ġ",
    "6462" : "#Med",
    "6463" : "fals",
    "6464" : "system",
    "6465" : "fourĠ",
    "6466" : "pectĠ",
    "6467" : "vail",
    "6468" : "s.ĠIn",
    "6469" : "Civil",
    "6470" : "ware",
    "6471" : "s.ĠB",
    "6472" : "Cali",
    "6473" : "coverĠ",
    "6474" : "wood",
    "6475" : "e.ĠItĠisĠ",
    "6476" : "mission",
    "6477" : "s,ĠandĠtheĠ",
    "6478" : "s.ĠO",
    "6479" : "cycl",
    "6480" : "hier",
    "6481" : "hett",
    "6482" : "ilesĠ",
    "6483" : "s.ĠItĠisĠ",
    "6484" : "pitch",
    "6485" : "winn",
    "6486" : "beĠableĠtoĠ",
    "6487" : "coffe",
    "6488" : "civil",
    "6489" : "s.ĠTheyĠ",
    "6490" : "vict",
    "6491" : "Robot",
    "6492" : "Smart",
    "6493" : "Collabor",
    "6494" : "hotĠ",
    "6495" : "costĠofĠ",
    "6496" : "genderĠ",
    "6497" : "celebr",
    "6498" : "budget",
    "6499" : "plot",
    "6500" : "s.ĠInĠaddition",
    "6501" : "raft",
    "6502" : "eaĠlevel",
    "6503" : "TourĠd",
    "6504" : "4}{3}",
    "6505" : "ina",
    "6506" : "sĠ-",
    "6507" : "eĠon",
    "6508" : "sĠw",
    "6509" : "on-",
    "6510" : "Ġtur",
    "6511" : "eĠ-Ġ",
    "6512" : "ĠaĠth",
    "6513" : "eringĠ",
    "6514" : "sĠis",
    "6515" : "orm",
    "6516" : "eĠhisĠ",
    "6517" : "čĊčĊI",
    "6518" : "ane",
    "6519" : "Ġtast",
    "6520" : "LosĠAng",
    "6521" : ".čĊ7",
    "6522" : "orqu",
    "6523" : "alm",
    "6524" : "es:Ġ",
    "6525" : ".ĠJ",
    "6526" : ",ĠD",
    "6527" : "ing:Ġ",
    "6528" : ",ĠK",
    "6529" : "rein",
    "6530" : "ings.čĊ",
    "6531" : "aling",
    "6532" : "altĠ",
    "6533" : "refr",
    "6534" : "es,Ġand",
    "6535" : "ingĠthatĠ",
    "6536" : "ĠandĠp",
    "6537" : "eĠisĠtheĠ",
    "6538" : "ofĠaĠs",
    "6539" : "outer",
    "6540" : "enth",
    "6541" : "le-",
    "6542" : "ousĠandĠ",
    "6543" : "ingĠall",
    "6544" : "yĠinĠtheĠ",
    "6545" : "Ġcur",
    "6546" : "elĠ",
    "6547" : "Ġcop",
    "6548" : "mundan",
    "6549" : "ford",
    "6550" : "us.čĊ",
    "6551" : "esĠandĠtheĠ",
    "6552" : "Ġscor",
    "6553" : "winterĠ",
    "6554" : "ilĠ",
    "6555" : "ingĠforĠ",
    "6556" : "Ġthef",
    "6557" : "sĠonĠaĠ",
    "6558" : "use,Ġ",
    "6559" : "iven",
    "6560" : "alledĠ",
    "6561" : ",Ġcar",
    "6562" : "iverĠ",
    "6563" : "edĠt",
    "6564" : "usingĠs",
    "6565" : "loan",
    "6566" : "ive.čĊ",
    "6567" : "eĠtext",
    "6568" : "olf",
    "6569" : "Ġtrop",
    "6570" : "ĠtoĠcreat",
    "6571" : "chos",
    "6572" : "eterĠ",
    "6573" : "ed.ĠTheĠ",
    "6574" : ",ĠitĠisĠ",
    "6575" : "imalĠ",
    "6576" : "urch",
    "6577" : "icros",
    "6578" : "ingĠinĠaĠ",
    "6579" : "pros",
    "6580" : "et'sĠ",
    "6581" : "edĠonĠ",
    "6582" : "edĠat",
    "6583" : "ĠthusĠ",
    "6584" : "ĠanĠanimal",
    "6585" : "eĠaĠw",
    "6586" : "stop",
    "6587" : "ingĠourĠ",
    "6588" : "ĠtoĠother",
    "6589" : "ĠaĠlarg",
    "6590" : "ationĠand",
    "6591" : "ations,Ġ",
    "6592" : "esĠfrom",
    "6593" : "plent",
    "6594" : "ir-",
    "6595" : "isĠnotĠ",
    "6596" : "alwaysĠ",
    "6597" : "Ġwind",
    "6598" : "Ġaverag",
    "6599" : "Ġschem",
    "6600" : "oneĠsentence.čĊ",
    "6601" : "haz",
    "6602" : "emov",
    "6603" : "Ġmy",
    "6604" : "reportĠ",
    "6605" : "Ġtower",
    "6606" : "ĠaĠbetterĠ",
    "6607" : "Ġdu",
    "6608" : "ageĠandĠ",
    "6609" : "aint",
    "6610" : "Ġmess",
    "6611" : "eĠagain",
    "6612" : "ourt",
    "6613" : "uman",
    "6614" : "Ġsecond",
    "6615" : "Ġdes",
    "6616" : "Ġwould",
    "6617" : "leaseĠ",
    "6618" : "Ġmeas",
    "6619" : "omethingĠ",
    "6620" : "low-",
    "6621" : "esĠcanĠbeĠ",
    "6622" : "ĠthatĠw",
    "6623" : ",ĠandĠc",
    "6624" : "e.čĊ3",
    "6625" : "Ġstop",
    "6626" : "eĠsn",
    "6627" : ":ĠE",
    "6628" : ":ĠT",
    "6629" : "evers",
    "6630" : "lower",
    "6631" : "Ġthat'sĠ",
    "6632" : "proverb",
    "6633" : "ĠandĠareĠ",
    "6634" : "pron",
    "6635" : "Ġcloth",
    "6636" : "povert",
    "6637" : "inquir",
    "6638" : "Ġtoward",
    "6639" : "throp",
    "6640" : "eĠsureĠ",
    "6641" : "neut",
    "6642" : "ĠinĠwhich",
    "6643" : "Ġawaren",
    "6644" : "ĠthatĠwouldĠ",
    "6645" : "unexpect",
    "6646" : "heet",
    "6647" : ".ĠIf",
    "6648" : "čĊCor",
    "6649" : "perpet",
    "6650" : "ĠstandĠ",
    "6651" : "čĊCol",
    "6652" : "Ġstopp",
    "6653" : "accur",
    "6654" : "haredĠ",
    "6655" : "Ġm),Ġ",
    "6656" : "edĠtomato",
    "6657" : "id-19",
    "6658" : "Ġbuild",
    "6659" : "antĠtoĠ",
    "6660" : "grac",
    "6661" : "ĠthinkĠ",
    "6662" : "fewer",
    "6663" : "ĠtoĠdetermineĠ",
    "6664" : "ĠthatĠcanĠbeĠusedĠtoĠ",
    "6665" : "formal",
    "6666" : "urpris",
    "6667" : "beh",
    "6668" : "encourageĠ",
    "6669" : "Ġbreath",
    "6670" : "ingĠtheĠt",
    "6671" : "regression",
    "6672" : "Ġtru",
    "6673" : "feather",
    "6674" : "fornia",
    "6675" : "otiv",
    "6676" : "ĠisĠalsoĠ",
    "6677" : "resolution",
    "6678" : "entenceĠthatĠ",
    "6679" : "Ġdon'tĠ",
    "6680" : "began",
    "6681" : "illness",
    "6682" : "orĠofĠtheĠ",
    "6683" : "aveĠtheĠ",
    "6684" : "ender",
    "6685" : "čĊWeĠ",
    "6686" : "ateĠwithĠ",
    "6687" : "evidenc",
    "6688" : "Ġasc",
    "6689" : "owerĠofĠ",
    "6690" : ".ĠAll",
    "6691" : "ers,Ġs",
    "6692" : "orĠotherĠ",
    "6693" : "eĠcor",
    "6694" : "respir",
    "6695" : "eĠanalytic",
    "6696" : "prosĠandĠcon",
    "6697" : "eĠcanĠbeĠ",
    "6698" : "onĠofĠ",
    "6699" : "logicalĠ",
    "6700" : "ĠasĠtheyĠ",
    "6701" : "ies,ĠandĠ",
    "6702" : "čĊDayĠ",
    "6703" : "moreĠd",
    "6704" : "introduction",
    "6705" : "ocumentĠ",
    "6706" : "Ġalphabet",
    "6707" : "plet",
    "6708" : "striv",
    "6709" : "s,ĠonĠtheĠotherĠhand",
    "6710" : "earli",
    "6711" : "ferenceĠ",
    "6712" : "conflict",
    "6713" : "sĠtoĠbeĠ",
    "6714" : "newĠandĠ",
    "6715" : "Ġabund",
    "6716" : "helpingĠ",
    "6717" : "plementĠ",
    "6718" : "incer",
    "6719" : "ocurrenc",
    "6720" : "prilĠ",
    "6721" : "čĊ19",
    "6722" : "providing",
    "6723" : "dataĠisĠ",
    "6724" : "provideĠaĠ",
    "6725" : "Ġapple",
    "6726" : "dataĠstor",
    "6727" : "ĠaĠsentenceĠusingĠtheĠ",
    "6728" : ".ĠItĠhasĠ",
    "6729" : "eĠtooĠ",
    "6730" : "eĠtoĠaĠ",
    "6731" : "you'reĠ",
    "6732" : "es,Ġwhich",
    "6733" : "workĠandĠ",
    "6734" : "ĠtimeĠs",
    "6735" : "bringsĠ",
    "6736" : "čĊSuggestĠ",
    "6737" : "estĠinĠ",
    "6738" : "ableĠto",
    "6739" : "Ġadmir",
    "6740" : "proced",
    "6741" : "sĠofĠaĠs",
    "6742" : ".ĠSecond",
    "6743" : "ingĠcanĠ",
    "6744" : "Ġforc",
    "6745" : "čĊFiveĠ",
    "6746" : "dragon",
    "6747" : "ĠaccountĠ",
    "6748" : "diss",
    "6749" : "čĊFindĠ",
    "6750" : "Ġstrang",
    "6751" : "ĠtheĠcustomer",
    "6752" : "decor",
    "6753" : "ĠwhileĠ",
    "6754" : "ĠofĠtheseĠ",
    "6755" : ".ĠFor",
    "6756" : "ĠtakingĠ",
    "6757" : "ĠtakeĠaĠ",
    "6758" : "eveloper",
    "6759" : "Ġpat",
    "6760" : "Ġpur",
    "6761" : "improveĠc",
    "6762" : "s,ĠandĠotherĠ",
    "6763" : "shar",
    "6764" : "increaseĠtheĠ",
    "6765" : "changingĠtheĠ",
    "6766" : "commerc",
    "6767" : "čĊWriteĠan",
    "6768" : "eĠisĠlikeĠaĠ",
    "6769" : "čĊPred",
    "6770" : "yĠsauc",
    "6771" : "ĠinĠ19",
    "6772" : "final",
    "6773" : "ĠthemĠ",
    "6774" : "relativ",
    "6775" : "retri",
    "6776" : "wordsĠandĠ",
    "6777" : "Ġthem.čĊ",
    "6778" : "eĠaĠsolution",
    "6779" : "ĠinĠorderĠtoĠ",
    "6780" : "StepĠ",
    "6781" : "ia.čĊ",
    "6782" : ".ĠAddĠtheĠ",
    "6783" : "consult",
    "6784" : "lifest",
    "6785" : "lifeĠandĠ",
    "6786" : "disruption",
    "6787" : "flour",
    "6788" : "goalĠ",
    "6789" : "čĊRevers",
    "6790" : "preserv",
    "6791" : "Ġchicken",
    "6792" : "hasĠallow",
    "6793" : "ĠshouldĠinclud",
    "6794" : ".ĠThisĠmeans",
    "6795" : "2018",
    "6796" : "ĠtheirĠownĠ",
    "6797" : "experience",
    "6798" : "ĠtypesĠof",
    "6799" : ".ĠDevelop",
    "6800" : "experience.čĊ",
    "6801" : "intoĠtwoĠ",
    "6802" : "10.3",
    "6803" : "ĠcanĠhelpĠ",
    "6804" : "ĠčĊB",
    "6805" : "sĠthatĠtheĠ",
    "6806" : "idĠs",
    "6807" : "youĠknow",
    "6808" : "byĠaĠ",
    "6809" : "2017",
    "6810" : "ĠalgorithmsĠtoĠ",
    "6811" : "enefitsĠ",
    "6812" : "merc",
    "6813" : "aracter",
    "6814" : "aracterĠ",
    "6815" : "čĊMachineĠlearn",
    "6816" : "butĠtheĠ",
    "6817" : "visualĠ",
    "6818" : "youĠlikeĠtoĠ",
    "6819" : "Ġadvent",
    "6820" : "čĊDescribeĠtheĠs",
    "6821" : "produceĠ",
    "6822" : "variable",
    "6823" : "visibility",
    "6824" : "productsĠandĠs",
    "6825" : "yearĠ",
    "6826" : "loveĠ",
    "6827" : "eĠofĠtheĠfollowingĠ",
    "6828" : "ĠanĠincred",
    "6829" : "corpor",
    "6830" : "energyĠlevel",
    "6831" : "organizedĠ",
    "6832" : "lossĠofĠ",
    "6833" : "long-term",
    "6834" : "issingĠ",
    "6835" : "eĠtheĠsameĠ",
    "6836" : "Ġscal",
    "6837" : "peopleĠwhoĠ",
    "6838" : "questionsĠ",
    "6839" : "Ġcontribut",
    "6840" : "Ġseen",
    "6841" : "Ġseed",
    "6842" : "ĠaĠdist",
    "6843" : "čĊIdentifyĠ",
    "6844" : "livedĠaĠ",
    "6845" : "empt",
    "6846" : "sĠinĠorderĠtoĠ",
    "6847" : "Environ",
    "6848" : "priceĠofĠaĠ",
    "6849" : "čĊĠĠĠ",
    "6850" : "followingĠstatement",
    "6851" : "sĠareĠtypicallyĠ",
    "6852" : "sĠaroundĠtheĠ",
    "6853" : "ĠdoesĠ",
    "6854" : "ysburg",
    "6855" : "Ġaccurac",
    "6856" : "involvesĠtheĠ",
    "6857" : "profit",
    "6858" : "list.čĊ",
    "6859" : "eĠtrad",
    "6860" : "ĠcouldĠbeĠ",
    "6861" : "ĠcommonĠ",
    "6862" : "ingĠmaterial",
    "6863" : "future",
    "6864" : "ledger",
    "6865" : "-sav",
    "6866" : "Ġaccuracy",
    "6867" : "benefitsĠandĠ",
    "6868" : "ĠbetweenĠ",
    "6869" : "releasedĠ",
    "6870" : "čĊProvideĠ",
    "6871" : "marketingĠcampaign",
    "6872" : ":čĊĠĠĠĠĠĠĠĠĠĠĠĠ",
    "6873" : "čĊNameĠaĠ",
    "6874" : "ikeĠ",
    "6875" : "night.čĊ",
    "6876" : "!ĠW",
    "6877" : "Ġdifferenc",
    "6878" : "computerĠ",
    "6879" : "ythingĠ",
    "6880" : "diagnos",
    "6881" : "real-",
    "6882" : "focus",
    "6883" : "vegetables",
    "6884" : "pirit",
    "6885" : "eĠisĠanĠ",
    "6886" : "Ġdiscover",
    "6887" : "ĠartificialĠneuralĠnetwork",
    "6888" : "anks",
    "6889" : "emissionsĠandĠ",
    "6890" : "emailĠaddress",
    "6891" : "impactĠofĠ",
    "6892" : "eĠaboutĠ",
    "6893" : "possibilitiesĠ",
    "6894" : "employment",
    "6895" : "whenĠtheĠ",
    "6896" : "yĠcouldĠ",
    "6897" : "eĠshouldĠb",
    "6898" : "Arct",
    "6899" : "representĠtheĠ",
    "6900" : "čĊRewriteĠtheĠfollowingĠ",
    "6901" : "worldĠisĠ",
    "6902" : "čĊChoos",
    "6903" : "čĊ-Ġ1Ġteaspoon",
    "6904" : "himself",
    "6905" : "eĠthisĠsentenceĠ",
    "6906" : "intoĠtheĠatmospher",
    "6907" : "openedĠtheĠ",
    "6908" : "riptĠ",
    "6909" : "čĊClassify",
    "6910" : "patternsĠin",
    "6911" : "ĠanalyzeĠ",
    "6912" : "quicklyĠandĠ",
    "6913" : "tiveĠanalytic",
    "6914" : "journey.čĊ",
    "6915" : "caption",
    "6916" : "efficientĠapplianc",
    "6917" : ".ĠWhenĠ",
    "6918" : "digital",
    "6919" : "beforeĠ",
    "6920" : "listĠofĠtheĠ",
    "6921" : "Thanks",
    "6922" : "people,Ġ",
    "6923" : "determination",
    "6924" : "anana,Ġ",
    "6925" : "emotionalĠ",
    "6926" : "food.čĊ",
    "6927" : "everyoneĠ",
    "6928" : "goalsĠandĠ",
    "6929" : "ĠtoĠcalculateĠtheĠ",
    "6930" : "regularĠ",
    "6931" : "politic",
    "6932" : "ĠbetweenĠtheĠ",
    "6933" : "?ĠčĊ-ĠWhat",
    "6934" : "individualĠ",
    "6935" : "ĠcanĠbeĠs",
    "6936" : "gradu",
    "6937" : "ĠcanĠbeĠc",
    "6938" : "Ġbelow",
    "6939" : "freedom",
    "6940" : "craft",
    "6941" : "ĠcustomersĠ",
    "6942" : "Ġarray",
    "6943" : "conceptĠofĠ",
    "6944" : "focusĠonĠ",
    "6945" : "onĠsociet",
    "6946" : "ĠGats",
    "6947" : "privac",
    "6948" : "Ġpolic",
    "6949" : "ItĠisĠ",
    "6950" : "window",
    "6951" : "urve",
    "6952" : "latestĠ",
    "6953" : "privacyĠ",
    "6954" : "čĊMakeĠaĠlistĠofĠ",
    "6955" : "ynt",
    "6956" : "makeĠitĠmoreĠ",
    "6957" : "pastĠtens",
    "6958" : "whoĠareĠ",
    "6959" : "planet.čĊ",
    "6960" : "ĠartificialĠintelligence.čĊ",
    "6961" : "recipeĠforĠaĠ",
    "6962" : "Ġadvancement",
    "6963" : "recentĠyear",
    "6964" : "plasticĠb",
    "6965" : "fullĠofĠ",
    "6966" : ".ĠFurthermore,ĠtheĠ",
    "6967" : "angerousĠ",
    "6968" : "čĊListĠfiveĠ",
    "6969" : "ĠyearĠ",
    "6970" : "rateĠofĠ",
    "6971" : "implicationsĠof",
    "6972" : "greenhouseĠgasĠ",
    "6973" : "It'sĠ",
    "6974" : "topic",
    "6975" : "ĠanĠincreaseĠinĠ",
    "6976" : "isĠaĠtypeĠofĠ",
    "6977" : "čĊRewriteĠtheĠsentenc",
    "6978" : "center",
    "6979" : "video",
    "6980" : "ĠsecurityĠ",
    "6981" : "Ġbegin",
    "6982" : "ĠbeĠusedĠtoĠ",
    "6983" : "NewĠY",
    "6984" : "virtual",
    "6985" : "GreatĠGats",
    "6986" : "Phil",
    "6987" : "root.",
    "6988" : "onomousĠ",
    "6989" : "encouragesĠ",
    "6990" : "occursĠ",
    "6991" : "resultĠin",
    "6992" : "knownĠfor",
    "6993" : "witchĠtoĠ",
    "6994" : "urfaceĠare",
    "6995" : "burningĠf",
    "6996" : "formula",
    "6997" : "partĠofĠtheĠ",
    "6998" : "čĊExplainĠtheĠconceptĠof",
    "6999" : "elineĠofĠtheĠ",
    "7000" : "identĠofĠtheĠ",
    "7001" : "Ġsubject",
    "7002" : "čĊExplainĠwhyĠ",
    "7003" : "afetyĠ",
    "7004" : "earchĠengineĠ",
    "7005" : "arryĠPot",
    "7006" : "debtĠ",
    "7007" : ".com/",
    "7008" : "filledĠwithĠ",
    "7009" : "vegetableĠoil",
    "7010" : "useum",
    "7011" : "Ġconnection",
    "7012" : "čĊThereĠar",
    "7013" : "medicin",
    "7014" : "problem-solvingĠskill",
    "7015" : "efore,Ġ",
    "7016" : "author",
    "7017" : "firearm",
    "7018" : "ellĠpepper",
    "7019" : "ignificantlyĠ",
    "7020" : "Ġtailor",
    "7021" : "liberalĠart",
    "7022" : "čĊGivenĠaĠlistĠofĠ",
    "7023" : "chopped",
    "7024" : "Ġstead",
    "7025" : "emergenc",
    "7026" : "NoĠinput.čĊ",
    "7027" : "boilingĠ",
    "7028" : "ĠwentĠtoĠtheĠstor",
    "7029" : ",ĠasĠwellĠas",
    "7030" : "ĠseeksĠtoĠ",
    "7031" : "immigration",
    "7032" : "ĠbecauseĠ",
    "7033" : "biggestĠ",
    "7034" : "German",
    "7035" : "chromatograph",
    "7036" : "čĊOnceĠuponĠaĠtime,ĠthereĠwasĠaĠ",
    "7037" : "ituation.čĊ",
    "7038" : "stitution",
    "7039" : "ĠaspectsĠofĠ",
    "7040" : "interpret",
    "7041" : "ofĠaĠtriangleĠ",
    "7042" : "vibrantĠ",
    "7043" : "-based",
    "7044" : "vocab",
    "7045" : "ufactur",
    "7046" : "bonĠemission",
    "7047" : "becomingĠincreasinglyĠ",
    "7048" : "psych",
    "7049" : "explicit",
    "7050" : "razil",
    "7051" : "persuasiveĠ",
    "7052" : ".ĠDeepĠlearningĠ",
    "7053" : "čĊDetermineĠtheĠ",
    "7054" : "biodivers",
    "7055" : "athematicalĠ",
    "7056" : "3DĠprint",
    "7057" : "lectricĠToothbrushĠčĊ-Ġ",
    "7058" : "ryptocurrenc",
    "7059" : "onavirusĠ",
    "7060" : "čĊEvaluateĠtheĠ",
    "7061" : "artificialĠintelligenc",
    "7062" : "čĊFormulat",
    "7063" : "\\timesĠ",
    "7064" : "Vietnam",
    "7065" : "hetti",
    "7066" : "TourĠdeĠ",
    "7067" : "reinforc",
    "7068" : "hierarch",
    "7069" : "Gettysburg",
    "7070" : "California",
    "7071" : "refriger",
    "7072" : "ĠJ",
    "7073" : "ĠV",
    "7074" : "(I",
    "7075" : "ĠčĊA",
    "7076" : ".\"",
    "7077" : "'čĊ",
    "7078" : ".8",
    "7079" : "Ġnew",
    "7080" : "1.",
    "7081" : "2)",
    "7082" : "24",
    "7083" : "28",
    "7084" : "6,",
    "7085" : "-st",
    "7086" : "62",
    "7087" : "-th",
    "7088" : "78",
    "7089" : "79",
    "7090" : "ĠSt",
    "7091" : "5čĊ",
    "7092" : "4:Ġ",
    "7093" : "9,Ġ",
    "7094" : "AM",
    "7095" : "AW",
    "7096" : "CO",
    "7097" : "CP",
    "7098" : "Ġpoem",
    "7099" : "Creat",
    "7100" : "Acc",
    "7101" : "QL",
    "7102" : "KingĠ",
    "7103" : "Lis",
    "7104" : "-reach",
    "7105" : "Net",
    "7106" : "]Ġ",
    "7107" : "Sum",
    "7108" : "Rep",
    "7109" : "Oly",
    "7110" : "-purpos",
    "7111" : "Lov",
    "7112" : "bic",
    "7113" : "bro",
    "7114" : "cam",
    "7115" : "cut",
    "7116" : "dim",
    "7117" : "fit",
    "7118" : "lu",
    "7119" : "eum",
    "7120" : "eper",
    "7121" : "my",
    "7122" : "fif",
    "7123" : "oT",
    "7124" : "i.čĊ",
    "7125" : "ĠDe",
    "7126" : "cot",
    "7127" : "gall",
    "7128" : "iedĠ",
    "7129" : "gap",
    "7130" : "msĠ",
    "7131" : "hint",
    "7132" : "eign",
    "7133" : "fli",
    "7134" : "leĠtheĠ",
    "7135" : "očĊ",
    "7136" : "dens",
    "7137" : "Park",
    "7138" : "hers",
    "7139" : "uf",
    "7140" : "nerĠ",
    "7141" : "dish",
    "7142" : "ral",
    "7143" : "pul",
    "7144" : "ram",
    "7145" : "tre",
    "7146" : "cris",
    "7147" : "eightĠ",
    "7148" : "ietĠ",
    "7149" : "hug",
    "7150" : "ray",
    "7151" : "licĠ",
    "7152" : "les,Ġ",
    "7153" : "aidĠ",
    "7154" : "viv",
    "7155" : "busĠ",
    "7156" : "vul",
    "7157" : "s.ĠT",
    "7158" : "myĠs",
    "7159" : "next",
    "7160" : "usĠofĠ",
    "7161" : "}čĊ",
    "7162" : "warn",
    "7163" : "vast",
    "7164" : "1/2",
    "7165" : "yingĠtheĠ",
    "7166" : "show",
    "7167" : "pare",
    "7168" : "s.ĠC",
    "7169" : "sĠthem",
    "7170" : "saw",
    "7171" : "crim",
    "7172" : "gaveĠ",
    "7173" : "rink",
    "7174" : "sčĊ2",
    "7175" : "sĠatĠ",
    "7176" : "s.ĠG",
    "7177" : "bought",
    "7178" : "rush",
    "7179" : "mitt",
    "7180" : "kitch",
    "7181" : "wider",
    "7182" : "scal",
    "7183" : "Output",
    "7184" : "ycle",
    "7185" : "s.ĠThey",
    "7186" : "loud",
    "7187" : "n):čĊĠĠĠĠ",
    "7188" : "|--------",
    "7189" : "],čĊ",
    "7190" : "Sarah",
    "7191" : "favorit",
    "7192" : "len(",
    "7193" : "battleĠ",
    "7194" : "aSc",
    "7195" : "Smith",
    "7196" : "eĠ(",
    "7197" : "in'",
    "7198" : "Ġaw",
    "7199" : "intĠ",
    "7200" : "sĠit",
    "7201" : "sĠus",
    "7202" : "insĠandĠ",
    "7203" : "ench",
    "7204" : "ones",
    "7205" : "onion",
    "7206" : "onĠandĠ",
    "7207" : "ingl",
    "7208" : "Process",
    "7209" : "Ġsn",
    "7210" : "orĠb",
    "7211" : ".čĊH",
    "7212" : "anic",
    "7213" : ".čĊS",
    "7214" : "atsĠandĠ",
    "7215" : "sĠitsĠ",
    "7216" : "oneĠofĠ",
    "7217" : "atell",
    "7218" : "enableĠ",
    "7219" : "anad",
    "7220" : "dialogu",
    "7221" : "innam",
    "7222" : ",ĠN",
    "7223" : ",ĠR",
    "7224" : "ingsĠandĠ",
    "7225" : "aticĠ",
    "7226" : "aleĠ",
    "7227" : "alsĠ",
    "7228" : "ales",
    "7229" : "ofĠa",
    "7230" : "sĠforĠaĠ",
    "7231" : "alesĠ",
    "7232" : "eĠwithĠtheĠ",
    "7233" : "esĠtoĠtheĠ",
    "7234" : "ĠandĠb",
    "7235" : "repar",
    "7236" : "ingĠat",
    "7237" : ".čĊčĊS",
    "7238" : "HarryĠPot",
    "7239" : "ictĠ",
    "7240" : "sĠwithĠtheĠ",
    "7241" : "ofĠanĠ",
    "7242" : "ĠsetĠ",
    "7243" : "sĠwill",
    "7244" : "heĠhad",
    "7245" : "esĠthem",
    "7246" : "ofĠaĠc",
    "7247" : "ingĠH",
    "7248" : "ingĠtheirĠ",
    "7249" : "omin",
    "7250" : "sĠwhoĠ",
    "7251" : "roy",
    "7252" : "entre",
    "7253" : "refin",
    "7254" : "asĠtheĠ",
    "7255" : "usi",
    "7256" : "enterĠ",
    "7257" : ",ĠitĠ",
    "7258" : "Ġsaw",
    "7259" : ",Ġinclud",
    "7260" : "iction",
    "7261" : "eriousĠ",
    "7262" : "ingĠthrough",
    "7263" : ",ĠAI",
    "7264" : "one-",
    "7265" : "SQL",
    "7266" : "entialĠ",
    "7267" : "usic",
    "7268" : "ĠtoĠit",
    "7269" : "readĠ",
    "7270" : "ĠcityĠ",
    "7271" : "aroundĠ",
    "7272" : "ingĠhisĠ",
    "7273" : "sĠeducation",
    "7274" : "forĠa",
    "7275" : "useĠandĠ",
    "7276" : "ĠtoĠcom",
    "7277" : "Ġcard",
    "7278" : "yĠwasĠ",
    "7279" : "fortĠ",
    "7280" : "eless",
    "7281" : "ingĠaboutĠtheĠ",
    "7282" : "Ġtrip",
    "7283" : "Ġsalt",
    "7284" : "Ġcook",
    "7285" : "oli",
    "7286" : "Ġthick",
    "7287" : "Ġslic",
    "7288" : "olit",
    "7289" : "forestĠ",
    "7290" : "ĠtoĠincreas",
    "7291" : "edĠorĠ",
    "7292" : "ingĠforĠtheĠ",
    "7293" : "esĠon",
    "7294" : "forĠall",
    "7295" : "ussĠtheĠ",
    "7296" : "stac",
    "7297" : "edĠher",
    "7298" : "eĠair",
    "7299" : "stall",
    "7300" : "edĠtoĠs",
    "7301" : "Ġspeak",
    "7302" : "eticĠ",
    "7303" : "edĠthem",
    "7304" : "arbon",
    "7305" : "Ġcertain",
    "7306" : "eĠtrain",
    "7307" : "esĠonĠ",
    "7308" : "Ġspot",
    "7309" : "use,ĠandĠ",
    "7310" : "sĠlikeĠaĠ",
    "7311" : "ĠtoĠhelpĠ",
    "7312" : "ureĠthat",
    "7313" : "sĠmadeĠ",
    "7314" : "ingĠofĠaĠ",
    "7315" : "ung",
    "7316" : "edĠwithĠtheĠ",
    "7317" : "uresĠtheĠ",
    "7318" : "esĠfromĠ",
    "7319" : "pod",
    "7320" : "ifyĠ",
    "7321" : "Ġbak",
    "7322" : "esĠinĠaĠ",
    "7323" : "remainĠ",
    "7324" : "edĠintoĠ",
    "7325" : "esĠcanĠ",
    "7326" : "erĠwhoĠ",
    "7327" : "eĠapp",
    "7328" : "sĠbasedĠon",
    "7329" : "eckĠ",
    "7330" : "erĠmarket",
    "7331" : "ess.čĊ",
    "7332" : "Ġmay",
    "7333" : "edĠonĠaĠ",
    "7334" : "essay",
    "7335" : "Ġspread",
    "7336" : "essiveĠ",
    "7337" : "Ġmph",
    "7338" : "exchang",
    "7339" : "ourĠc",
    "7340" : "eĠmanagement",
    "7341" : "ake.čĊ",
    "7342" : "ofĠtheĠR",
    "7343" : "ingĠthroughĠtheĠ",
    "7344" : "eĠtechnologyĠ",
    "7345" : "nois",
    "7346" : "ĠandĠal",
    "7347" : "Ġstill",
    "7348" : "ĠandĠaĠs",
    "7349" : "opy",
    "7350" : "Ġsituation",
    "7351" : "quak",
    "7352" : "Ġbreak",
    "7353" : "e.čĊ-Ġ",
    "7354" : "eĠserv",
    "7355" : "ĠstepĠ",
    "7356" : "mok",
    "7357" : "quareĠ",
    "7358" : "entimentĠ",
    "7359" : "withĠaĠs",
    "7360" : "ĠtoĠinfluenc",
    "7361" : "Ġanxiet",
    "7362" : ".ĠI'",
    "7363" : "compar",
    "7364" : "s.čĊ4",
    "7365" : "owerĠ",
    "7366" : "ĠthatĠcouldĠ",
    "7367" : "riesĠ",
    "7368" : "Ġmaterial",
    "7369" : "čĊTheĠfiveĠ",
    "7370" : "pear",
    "7371" : "peel",
    "7372" : "ammal",
    "7373" : "Ġagric",
    "7374" : "Ġmember",
    "7375" : "antĠandĠ",
    "7376" : "fection",
    "7377" : "čĊAp",
    "7378" : "ĠasĠitĠ",
    "7379" : "čĊTheĠcat",
    "7380" : "hat'sĠ",
    "7381" : "epart",
    "7382" : "atmosphereĠ",
    "7383" : "Ġcuis",
    "7384" : "outĠaĠ",
    "7385" : "istanceĠ",
    "7386" : "Ġclassification",
    "7387" : "behav",
    "7388" : "čĊIf",
    "7389" : "Ġcredit",
    "7390" : "othĠ",
    "7391" : "resolv",
    "7392" : "s,ĠbutĠ",
    "7393" : "čĊIĠw",
    "7394" : "otalĠ",
    "7395" : "weightĠ",
    "7396" : "ccord",
    "7397" : "Ġtrav",
    "7398" : "ĠthatĠtakesĠ",
    "7399" : "čĊ-ĠA",
    "7400" : "čĊ-ĠB",
    "7401" : "čĊ-ĠE",
    "7402" : "čĊ-ĠT",
    "7403" : "conven",
    "7404" : "constant",
    "7405" : "eĠcouldĠ",
    "7406" : "loganĠ",
    "7407" : "'sĠneed",
    "7408" : "e,ĠbutĠ",
    "7409" : "odies",
    "7410" : "itionalĠ",
    "7411" : "hatbotĠ",
    "7412" : "pre-",
    "7413" : "ĠtheĠsentenc",
    "7414" : "eĠdec",
    "7415" : "pher",
    "7416" : "čĊAss",
    "7417" : "hello",
    "7418" : "eĠdown",
    "7419" : "asterĠ",
    "7420" : "plement",
    "7421" : "asticĠ",
    "7422" : "y,ĠwhileĠ",
    "7423" : "Ġshin",
    "7424" : "?čĊ3",
    "7425" : "eĠofĠthisĠ",
    "7426" : "ure,ĠandĠ",
    "7427" : "Ġshop",
    "7428" : "learning.čĊ",
    "7429" : "inced",
    "7430" : "inĠtheĠclassroom",
    "7431" : "inceĠtheĠ",
    "7432" : "ableĠofĠ",
    "7433" : "čĊCĠĠGĠĠ",
    "7434" : "helpingĠtoĠ",
    "7435" : "es.čĊ-Ġ",
    "7436" : "provides",
    "7437" : "indicat",
    "7438" : "ĠaĠsuitableĠ",
    "7439" : "obtain",
    "7440" : "eĠwant",
    "7441" : "čĊCashĠflow",
    "7442" : "bring",
    "7443" : "čĊ1.ĠA",
    "7444" : ".ĠčĊčĊTheĠ",
    "7445" : "ĠthatĠitĠisĠ",
    "7446" : "easil",
    "7447" : "makingĠthem",
    "7448" : "newfoundĠ",
    "7449" : "čĊTak",
    "7450" : "ĠwithoutĠ",
    "7451" : "es,Ġwhil",
    "7452" : "ityĠofĠtheĠ",
    "7453" : "ityĠinĠ",
    "7454" : "engageĠ",
    "7455" : "ĠaĠcustomer",
    "7456" : "dataĠfrom",
    "7457" : "ulturalĠ",
    "7458" : "dram",
    "7459" : "sĠsuch",
    "7460" : "estĠin",
    "7461" : "driveĠ",
    "7462" : "yourĠwebsit",
    "7463" : "sĠsystem",
    "7464" : "ansion",
    "7465" : "ingĠaĠnew",
    "7466" : "ensitiveĠ",
    "7467" : "ĠaĠcertain",
    "7468" : "čĊDearĠ",
    "7469" : "energyĠs",
    "7470" : "čĊEn",
    "7471" : ".ĠHeĠisĠ",
    "7472" : "ageĠofĠtheĠ",
    "7473" : "ableĠand",
    "7474" : "mann",
    "7475" : "sĠofĠanĠ",
    "7476" : "likelyĠ",
    "7477" : "onĠtheĠworld",
    "7478" : "ĠlineĠ",
    "7479" : "ousand",
    "7480" : "sĠsuchĠas",
    "7481" : "ible",
    "7482" : "reducedĠ",
    "7483" : "Ġlaw",
    "7484" : "includesĠ",
    "7485" : "Ġwho",
    "7486" : "ĠlastĠ",
    "7487" : "persever",
    "7488" : "healthĠandĠ",
    "7489" : "ingĠseaĠlevel",
    "7490" : "ĠtheĠcap",
    "7491" : "Ġstress",
    "7492" : "čĊCreatingĠaĠ",
    "7493" : "ĠtheĠcost",
    "7494" : "givenĠword",
    "7495" : "medical",
    "7496" : "manner",
    "7497" : "highlight",
    "7498" : "eĠthis",
    "7499" : "obstac",
    "7500" : "Ġchar",
    "7501" : "Ġlen(",
    "7502" : "Ġtechnologies",
    "7503" : "Ġtechnology.čĊ",
    "7504" : "howĠmuch",
    "7505" : ".ĠThisĠprocessĠ",
    "7506" : "local",
    "7507" : "finallyĠ",
    "7508" : "story.čĊ",
    "7509" : "olutionsĠtoĠ",
    "7510" : "ĠthisĠsentenc",
    "7511" : "ĠtheĠtim",
    "7512" : "stormĠ",
    "7513" : "meditation",
    "7514" : "examin",
    "7515" : "10Ġminut",
    "7516" : "decentral",
    "7517" : "ordinaryĠ",
    "7518" : "exampleĠ",
    "7519" : "declarativ",
    "7520" : ".ĠDoĠ",
    "7521" : "ĠtheyĠcan",
    "7522" : "experienceĠandĠ",
    "7523" : "controll",
    "7524" : "irection",
    "7525" : "processĠandĠ",
    "7526" : "depression",
    "7527" : "sĠthatĠcanĠbeĠ",
    "7528" : "others.čĊ",
    "7529" : "forĠtheĠfollowing",
    "7530" : "ovenĠtoĠ",
    "7531" : "ubt",
    "7532" : "continent",
    "7533" : "products.čĊ",
    "7534" : "eĠandĠaĠ",
    "7535" : "sĠinĠtheĠworkplac",
    "7536" : "urric",
    "7537" : "humansĠ",
    "7538" : "Ġadvoc",
    "7539" : "Ġsystem.čĊ",
    "7540" : "ubject",
    "7541" : "ĠsystemsĠtoĠ",
    "7542" : "various",
    "7543" : "required",
    "7544" : "productĠofĠ",
    "7545" : "faceĠ",
    "7546" : "joyĠandĠ",
    "7547" : "čĊBuild",
    "7548" : "čĊHello",
    "7549" : "boardĠ",
    "7550" : "insur",
    "7551" : "atedĠandĠ",
    "7552" : "insid",
    "7553" : "levelsĠofĠ",
    "7554" : "levelĠofĠ",
    "7555" : "structure",
    "7556" : "information.čĊ",
    "7557" : "information,Ġ",
    "7558" : ".ĠMachineĠlearn",
    "7559" : "home.čĊ",
    "7560" : "greet",
    "7561" : "rash",
    "7562" : "benefic",
    "7563" : ".ĠItĠalso",
    "7564" : "ĠAn",
    "7565" : "ĠcreatingĠ",
    "7566" : "ĠaĠbusinessĠ",
    "7567" : "insertĠ",
    "7568" : "ĠcreatingĠaĠ",
    "7569" : "ĠaĠmag",
    "7570" : "whatĠaĠ",
    "7571" : "issileĠ",
    "7572" : "general",
    "7573" : "esĠthatĠtheĠ",
    "7574" : "rainingĠ",
    "7575" : "esĠthatĠcanĠ",
    "7576" : "meaning.čĊ",
    "7577" : "facilit",
    "7578" : "inspiredĠ",
    "7579" : "important.čĊ",
    "7580" : "lightlyĠ",
    "7581" : "čĊComput",
    "7582" : "eĠtheyĠareĠ",
    "7583" : "priceĠ",
    "7584" : "predictiveĠanalytic",
    "7585" : "binar",
    "7586" : "wardĠ",
    "7587" : "website'sĠ",
    "7588" : "economy",
    "7589" : "pointerĠ",
    "7590" : "empath",
    "7591" : "discipl",
    "7592" : "UseĠ",
    "7593" : "handleĠ",
    "7594" : "elseĠ",
    "7595" : "itiesĠinĠ",
    "7596" : "ĠĠĠĠĠĠĠĠĠĠĠĠĠĠĠĠ",
    "7597" : "ĠwouldĠlikeĠtoĠ",
    "7598" : "beautyĠofĠtheĠ",
    "7599" : "decisionĠtre",
    "7600" : "Energ",
    "7601" : "echnology",
    "7602" : "ĠwillĠb",
    "7603" : "čĊGivenĠtheĠfollowingĠ",
    "7604" : "belong",
    "7605" : "ĠcouldĠb",
    "7606" : ".ĠOutput",
    "7607" : "headlineĠ",
    "7608" : "input>čĊ",
    "7609" : "profileĠ",
    "7610" : "history",
    "7611" : "ĠapplicationĠ",
    "7612" : "historyĠ",
    "7613" : "studyĠ",
    "7614" : "reduceĠenergyĠconsumption",
    "7615" : "directĠ",
    "7616" : "ream.čĊ",
    "7617" : "ĠthanĠtheĠ",
    "7618" : "UnitedĠN",
    "7619" : "dependingĠ",
    "7620" : "issueĠofĠ",
    "7621" : "11,Ġ",
    "7622" : "ingĠtoĠaĠ",
    "7623" : "ĠmakeĠ",
    "7624" : "ehog",
    "7625" : "čĊSummariz",
    "7626" : "machineĠlearningĠ",
    "7627" : "attitud",
    "7628" : "educationalĠ",
    "7629" : "ĠdifferenceĠbetween",
    "7630" : "sĠmustĠ",
    "7631" : "s:čĊ1",
    "7632" : "engagingĠ",
    "7633" : "educationĠsystem",
    "7634" : "diabet",
    "7635" : "Ġare:Ġ",
    "7636" : "chool.čĊ",
    "7637" : "alĠsign",
    "7638" : "ĠstrategiesĠ",
    "7639" : ".ĠWhatĠisĠ",
    "7640" : "knowledgeĠandĠ",
    "7641" : "eĠadvanc",
    "7642" : "\"TheĠCatcherĠinĠtheĠRy",
    "7643" : "ĠalsoĠaĠ",
    "7644" : "recognizeĠ",
    "7645" : "ĠaĠcombin",
    "7646" : "čĊWriteĠaĠshortĠ",
    "7647" : "relief",
    "7648" : "123",
    "7649" : "ing,ĠandĠs",
    "7650" : "recognizingĠ",
    "7651" : "relianceĠ",
    "7652" : "ĠbeingĠ",
    "7653" : "desir",
    "7654" : "energy-",
    "7655" : "Ġbeaut",
    "7656" : "čĊNameĠ5",
    "7657" : "UnitedĠStates.čĊ",
    "7658" : "čĊRewriteĠtheĠfollowingĠsentenc",
    "7659" : "onlineĠc",
    "7660" : "calledĠ",
    "7661" : "examplesĠofĠ",
    "7662" : "ruction",
    "7663" : ":ĠAl",
    "7664" : "immut",
    "7665" : "immers",
    "7666" : "Ġdeep",
    "7667" : "ensureĠtheĠ",
    "7668" : "ĠthinkingĠ",
    "7669" : "sĠcanĠhelpĠtoĠ",
    "7670" : "ĠtwoĠsentences.čĊ",
    "7671" : "efficiently",
    "7672" : "noĠinput>čĊ",
    "7673" : "ibleĠandĠ",
    "7674" : "stead",
    "7675" : "steadĠ",
    "7676" : "foundĠinĠtheĠ",
    "7677" : "čĊHowĠcan",
    "7678" : "expand",
    "7679" : ".ĠItĠisĠalsoĠ",
    "7680" : "detect",
    "7681" : "cientific",
    "7682" : "ingredientsĠ",
    "7683" : ",ĠwhichĠisĠ",
    "7684" : "dataset",
    "7685" : "čĊGenerateĠaĠlistĠofĠfiveĠ",
    "7686" : "ioxid",
    "7687" : "determinedĠtoĠ",
    "7688" : "haveĠaĠpositiveĠ",
    "7689" : "emotional",
    "7690" : "eĠaĠbrief",
    "7691" : "capitalĠofĠ",
    "7692" : "Ġtechnology,ĠandĠtheĠ",
    "7693" : "ĠappĠthatĠ",
    "7694" : "ĠincreaseĠ",
    "7695" : "riangle.čĊ",
    "7696" : "promoteĠ",
    "7697" : "predictiveĠ",
    "7698" : "Ġbranch",
    "7699" : "responseĠtoĠtheĠ",
    "7700" : "chemical",
    "7701" : "marketĠ",
    "7702" : "featuresĠofĠtheĠ",
    "7703" : "relationshipĠbetween",
    "7704" : "planĠforĠ",
    "7705" : "wordsĠ\"",
    "7706" : "čĊWhenĠ",
    "7707" : "čĊWhich",
    "7708" : "effectiveĠandĠ",
    "7709" : "2008Ġ",
    "7710" : "nature.čĊ",
    "7711" : "ĠassociatedĠwithĠ",
    "7712" : "čĊdefĠis",
    "7713" : "innovativeĠ",
    "7714" : "ĠtakeĠrisk",
    "7715" : "ĠthereĠareĠ",
    "7716" : "ĠableĠto",
    "7717" : "focusĠon",
    "7718" : "lengthĠ",
    "7719" : "e:čĊ",
    "7720" : "2Ġ+Ġ",
    "7721" : "focusĠonĠtheĠ",
    "7722" : "publicĠtransport",
    "7723" : "2Ġegg",
    "7724" : "onĠsocialĠmedia",
    "7725" : "efficiency",
    "7726" : "relatedĠto",
    "7727" : "consideredĠ",
    "7728" : "productivity",
    "7729" : "modynamic",
    "7730" : "ĠaĠconversation",
    "7731" : "ĠwritingĠtoĠ",
    "7732" : "iousĠandĠ",
    "7733" : "magicalĠ",
    "7734" : "Reformation",
    "7735" : "ĠhasĠbeen",
    "7736" : "tograph",
    "7737" : "vehicleĠ",
    "7738" : "habitats",
    "7739" : "Ġappeal",
    "7740" : "oftwareĠdevelop",
    "7741" : "riminal",
    "7742" : "climateĠchange.čĊ",
    "7743" : "ExampleĠ",
    "7744" : "soon",
    "7745" : ".ĠEnjoy!čĊ",
    "7746" : "Ġinvest",
    "7747" : "ĠstructureĠ",
    "7748" : "Impac",
    "7749" : "nodeĠ",
    "7750" : "ettingĠup",
    "7751" : "name=\"",
    "7752" : "maximumĠ",
    "7753" : "environmentalĠimpact",
    "7754" : "čĊCategoryĠ",
    "7755" : "čĊRead",
    "7756" : "Ġtherefor",
    "7757" : "MonaĠ",
    "7758" : "livingĠorganism",
    "7759" : "Ġthere!Ġ",
    "7760" : "-termĠ",
    "7761" : "darkness",
    "7762" : "čĊIt'sĠ",
    "7763" : "complexĠtask",
    "7764" : "ĠkindĠ",
    "7765" : "preadĠofĠ",
    "7766" : "čĊComposeĠa",
    "7767" : "čĊComposeĠaĠ",
    "7768" : ".ĠExample",
    "7769" : ",ĠwhileĠtheĠ",
    "7770" : "ĠtrustĠandĠ",
    "7771" : "edgehog",
    "7772" : "čĊComeĠupĠwithĠaĠ",
    "7773" : "čĊUser",
    "7774" : "Ġmultipl",
    "7775" : "competition",
    "7776" : "eĠactivities",
    "7777" : "effectĠonĠtheĠ",
    "7778" : "čĊ-Ġ2ĠtablespoonsĠ",
    "7779" : "lastingĠ",
    "7780" : "healthcareĠservic",
    "7781" : "MexicoĠ",
    "7782" : "enhanceĠ",
    "7783" : "ingĠcanĠalsoĠ",
    "7784" : "delicious",
    "7785" : "fatigu",
    "7786" : "cenari",
    "7787" : "ately,Ġ",
    "7788" : "categories.čĊ",
    "7789" : "controlĠ",
    "7790" : "relaxation",
    "7791" : "eĠtransaction",
    "7792" : "argetĠaudienc",
    "7793" : ",Ġ3,Ġ4,Ġ",
    "7794" : "killetĠ",
    "7795" : "weekend",
    "7796" : "ĠaĠclass",
    "7797" : "ĠactiveĠvoic",
    "7798" : "filledĠwith",
    "7799" : ".ĠUtil",
    "7800" : "ĠtoĠfindĠtheĠ",
    "7801" : "Ġconnect",
    "7802" : "medicineĠ",
    "7803" : "hypothesisĠ",
    "7804" : "Ġantioxid",
    "7805" : "wideĠrangeĠofĠ",
    "7806" : "incorpor",
    "7807" : "Ġavoid",
    "7808" : "feltĠ",
    "7809" : "vacation",
    "7810" : "acebook",
    "7811" : "planning,Ġ",
    "7812" : "ĠarticleĠaboutĠ",
    "7813" : "Ġtelevision",
    "7814" : "ĠsquareĠ",
    "7815" : "termĠ\"",
    "7816" : "extract",
    "7817" : "consequencesĠofĠ",
    "7818" : "becauseĠitĠ",
    "7819" : "justiceĠsystem",
    "7820" : "Practic",
    "7821" : "ethicalĠconsider",
    "7822" : "entireĠ",
    "7823" : "referred",
    "7824" : "cientistsĠ",
    "7825" : "prehensiveĠ",
    "7826" : "composedĠofĠ",
    "7827" : "Ġappreciation",
    "7828" : "-driven",
    "7829" : "wait",
    "7830" : "incrediblyĠ",
    "7831" : "Ġindustr",
    "7832" : "identityĠthef",
    "7833" : "A-minor",
    "7834" : "manipul",
    "7835" : "labeledĠdata",
    "7836" : "returnĠFalsečĊ",
    "7837" : "Australia",
    "7838" : "čĊGiveĠm",
    "7839" : "ecommend",
    "7840" : "Fahrenheit",
    "7841" : "loneliness",
    "7842" : "BigĠB",
    "7843" : "ĠfeltĠ",
    "7844" : "maintenanc",
    "7845" : "facialĠrecognition",
    "7846" : "čĊSELECTĠ",
    "7847" : "sorb",
    "7848" : "iceĠcap",
    "7849" : "Georg",
    "7850" : "especiallyĠ",
    "7851" : "JavaSc",
    "7852" : "ĠtoĠ12ĠperĠ100,000",
    "7853" : "čĊFinally,Ġ",
    "7854" : "glucos",
    "7855" : "rapidlyĠ",
    "7856" : "polarĠiceĠcap",
    "7857" : "LosĠAngel",
    "7858" : "hazard",
    "7859" : "Covid-19",
    "7860" : "10.3ĠperĠ100,000",
    "7861" : "urfaceĠareaĠ",
    "7862" : "herself",
    "7863" : "vividĠ",
    "7864" : "VietnamĠWar",
    "7865" : "liberalĠartsĠeducation",
    "7866" : "vulner",
    "7867" : "\\timesĠ4}{3}",
    "7868" : "behavi",
    "7869" : "2008Ġelection",
    "7870" : "A-minorĠĠF",
    "7871" : "\")",
    "7872" : "$2",
    "7873" : "()",
    "7874" : "(s",
    "7875" : "-B",
    "7876" : ".7",
    "7877" : "\"?čĊ",
    "7878" : "3)",
    "7879" : "73",
    "7880" : "9Ġ",
    "7881" : "1ĠandĠ",
    "7882" : "1ĠtoĠ",
    "7883" : ",ĠanĠ",
    "7884" : "Ġeach",
    "7885" : ">Ġ",
    "7886" : ",ĠaĠc",
    "7887" : "Ag",
    "7888" : "CH",
    "7889" : ",ĠthisĠ",
    "7890" : "GB",
    "7891" : "Gi",
    "7892" : "Bat",
    "7893" : "-by",
    "7894" : "C.čĊ",
    "7895" : "For",
    "7896" : "Her",
    "7897" : "Doc",
    "7898" : "PI",
    "7899" : "\")čĊ",
    "7900" : "Beg",
    "7901" : "Data",
    "7902" : "Lon",
    "7903" : "High",
    "7904" : "Ro",
    "7905" : "ST",
    "7906" : "Man",
    "7907" : "Lim",
    "7908" : "Lif",
    "7909" : "UI",
    "7910" : "Pat",
    "7911" : "Pan",
    "7912" : "Nam",
    "7913" : "Vi",
    "7914" : "1)Ġ",
    "7915" : "Loc",
    "7916" : "IĠf",
    "7917" : "2)Ġ",
    "7918" : "Mod",
    "7919" : "Tom",
    "7920" : "Will",
    "7921" : "Well",
    "7922" : "ck",
    "7923" : "IĠcanĠ",
    "7924" : "Veg",
    "7925" : "fj",
    "7926" : "5Ġcm",
    "7927" : ",Ġthen",
    "7928" : "gg",
    "7929" : "aim",
    "7930" : "ho",
    "7931" : "ht",
    "7932" : "beĠa",
    "7933" : "eon",
    "7934" : "ka",
    "7935" : "eel",
    "7936" : "boo",
    "7937" : "gat",
    "7938" : "-doĠ",
    "7939" : "fet",
    "7940" : "eag",
    "7941" : "ml",
    "7942" : "a'sĠ",
    "7943" : "fem",
    "7944" : "hes",
    "7945" : "dleĠ",
    "7946" : "Hold",
    "7947" : "Water",
    "7948" : "fad",
    "7949" : "fest",
    "7950" : "ierĠ",
    "7951" : "py",
    "7952" : "CĠ=Ġ",
    "7953" : "lan",
    "7954" : "s;",
    "7955" : "ečĊ-Ġ",
    "7956" : "hoo",
    "7957" : "mas",
    "7958" : "oĠtheĠ",
    "7959" : "e.ĠS",
    "7960" : "fly",
    "7961" : "iateĠ",
    "7962" : "me.čĊ",
    "7963" : "byĠandĠ",
    "7964" : "x+",
    "7965" : "eans",
    "7966" : "manĠ",
    "7967" : "must",
    "7968" : "ffic",
    "7969" : "nest",
    "7970" : "fitĠ",
    "7971" : "tčĊ",
    "7972" : "yt",
    "7973" : "oach",
    "7974" : "pup",
    "7975" : "crow",
    "7976" : "van",
    "7977" : "fightĠ",
    "7978" : "ranĠ",
    "7979" : "rust",
    "7980" : "nerv",
    "7981" : "rill",
    "7982" : "xisĠ",
    "7983" : "xim",
    "7984" : "yĠaĠ",
    "7985" : "farm",
    "7986" : "wentĠ",
    "7987" : "sĠanĠ",
    "7988" : "tonĠ",
    "7989" : "ubeĠ",
    "7990" : "song",
    "7991" : "usĠs",
    "7992" : "wich",
    "7993" : "farĠ",
    "7994" : "eys",
    "7995" : "roundĠ",
    "7996" : "winter",
    "7997" : "pink",
    "7998" : "Mountain",
    "7999" : "spac",
    "8000" : "Ġvill",
    "8001" : "countri",
    "8002" : "match",
    "8003" : "lush",
    "8004" : "ĠnamedĠ",
    "8005" : "sĠaboutĠtheĠ",
    "8006" : "uels",
    "8007" : "waveĠ",
    "8008" : "(string",
    "8009" : "oardĠ",
    "8010" : "s.ĠSheĠ",
    "8011" : "LordĠ",
    "8012" : "Ass",
    "8013" : "lue",
    "8014" : "fuel",
    "8015" : "Web",
    "8016" : "describeĠ",
    "8017" : "urop",
    "8018" : "currentĠ",
    "8019" : "(lst",
    "8020" : "myster",
    "8021" : "degre",
    "8022" : "LanguageĠ",
    "8023" : "Alex",
    "8024" : "foughtĠ",
    "8025" : "luck",
    "8026" : "CNN",
    "8027" : "GunĠ",
    "8028" : "Dais",
    "8029" : "scre",
    "8030" : "Effect",
    "8031" : "-relatedĠ",
    "8032" : "s.ĠAdditionally,ĠtheĠ",
    "8033" : "cultur",
    "8034" : "dynamic",
    "8035" : "birdĠ",
    "8036" : "woman",
    "8037" : "difficultĠ",
    "8038" : "CSS",
    "8039" : "NaturalĠ",
    "8040" : "brok",
    "8041" : "upervisedĠlearn",
    "8042" : "VID",
    "8043" : "eĠR",
    "8044" : "FirstĠ",
    "8045" : "eĠall",
    "8046" : "in.čĊ",
    "8047" : "eĠcom",
    "8048" : "inch",
    "8049" : "onn",
    "8050" : "Ġtour",
    "8051" : "erĠs",
    "8052" : "Ġaim",
    "8053" : "eryĠ",
    "8054" : "eĠfrom",
    "8055" : "born",
    "8056" : "inĠd",
    "8057" : "sĠheĠ",
    "8058" : "es:",
    "8059" : "er,ĠandĠ",
    "8060" : "inction",
    "8061" : "onic",
    "8062" : "inĠanĠ",
    "8063" : "TodayĠ",
    "8064" : "atoĠ",
    "8065" : "loudĠcomput",
    "8066" : "or.čĊ",
    "8067" : "ateĠa",
    "8068" : "orĠandĠ",
    "8069" : "orus",
    "8070" : ".čĊ6",
    "8071" : "esĠt",
    "8072" : "esan",
    "8073" : "NLP",
    "8074" : "ital",
    "8075" : "Ġsor",
    "8076" : "orkĠ",
    "8077" : "only",
    "8078" : ",Ġl",
    "8079" : "Ġsun",
    "8080" : "realĠ",
    "8081" : "Ġspr",
    "8082" : "ofĠan",
    "8083" : "yĠD",
    "8084" : ".čĊčĊTheĠ",
    "8085" : "repe",
    "8086" : "erĠshouldĠ",
    "8087" : "sĠisĠaĠ",
    "8088" : "reform",
    "8089" : "ĠaidĠ",
    "8090" : "Ġsport",
    "8091" : "itĠofĠ",
    "8092" : ",Ġch",
    "8093" : "ĠsayĠ",
    "8094" : "ality",
    "8095" : "reput",
    "8096" : "atingĠandĠ",
    "8097" : "esĠtheĠc",
    "8098" : "icsĠ",
    "8099" : "Ġcr",
    "8100" : "es.ĠThisĠ",
    "8101" : "ofĠtheir",
    "8102" : "icid",
    "8103" : "icĠm",
    "8104" : "asm",
    "8105" : "mesmer",
    "8106" : "ĠandĠre",
    "8107" : "aerobicĠexercis",
    "8108" : ".čĊIn",
    "8109" : "isol",
    "8110" : ",Ġdata",
    "8111" : "itari",
    "8112" : "pivot",
    "8113" : "Ġcas",
    "8114" : "isĠand",
    "8115" : "pencil",
    "8116" : "geograph",
    "8117" : "asyĠ",
    "8118" : "<noĠinput>čĊ",
    "8119" : "usp",
    "8120" : "ousĠc",
    "8121" : "Ġahead",
    "8122" : "Ġcap",
    "8123" : "ass.čĊ",
    "8124" : "ingĠaboutĠ",
    "8125" : "čĊifĠ",
    "8126" : "Ġsummar",
    "8127" : "ive",
    "8128" : "ingĠandĠtheĠ",
    "8129" : "reproduc",
    "8130" : "erĠthan",
    "8131" : "isĠalsoĠ",
    "8132" : "useĠs",
    "8133" : "uster",
    "8134" : "reaction",
    "8135" : "char",
    "8136" : "elim",
    "8137" : "animal",
    "8138" : "influ",
    "8139" : "ingĠonĠ",
    "8140" : "fores",
    "8141" : "ilk",
    "8142" : ",ĠwithĠtheĠ",
    "8143" : "ĠandĠwasĠ",
    "8144" : "forĠd",
    "8145" : "ingĠoutĠ",
    "8146" : "edic",
    "8147" : "loon",
    "8148" : "ingĠonĠtheĠ",
    "8149" : "us,ĠtheĠ",
    "8150" : "oln",
    "8151" : "orbit",
    "8152" : "uri",
    "8153" : "ctiveĠ",
    "8154" : "ingĠmoreĠ",
    "8155" : "ĠtoĠitsĠ",
    "8156" : "forĠanĠ",
    "8157" : "forĠtheir",
    "8158" : "etĠaĠ",
    "8159" : "itĠisĠaĠ",
    "8160" : "edĠaĠs",
    "8161" : "edĠas",
    "8162" : "oler",
    "8163" : "esĠareĠtheĠ",
    "8164" : "edĠanĠ",
    "8165" : "Ġclim",
    "8166" : "ctob",
    "8167" : "uron",
    "8168" : "elyĠandĠ",
    "8169" : "olut",
    "8170" : "ureĠtheĠ",
    "8171" : "ĠtheĠfollowingĠsentenceĠ",
    "8172" : "usesĠtheĠ",
    "8173" : "learĠ",
    "8174" : "edĠoutĠ",
    "8175" : "itationalĠ",
    "8176" : ",ĠwhichĠ",
    "8177" : "ureĠofĠ",
    "8178" : "usersĠ",
    "8179" : "es.ĠTheyĠ",
    "8180" : "edia",
    "8181" : "plor",
    "8182" : "plit",
    "8183" : ",Ġ12",
    "8184" : "idĠtheĠ",
    "8185" : "Ġwid",
    "8186" : "sĠwillĠ",
    "8187" : "ĠtoĠmov",
    "8188" : "Ġself-",
    "8189" : "Ġbu",
    "8190" : "ide.čĊ",
    "8191" : "eturn"
  },
  "merges" : [ {
    "left" : 101,
    "right" : 32
  }, {
    "left" : 13,
    "right" : 10
  }, {
    "left" : 32,
    "right" : 116
  }, {
    "left" : 105,
    "right" : 110
  }, {
    "left" : 32,
    "right" : 97
  }, {
    "left" : 101,
    "right" : 114
  }, {
    "left" : 115,
    "right" : 32
  }, {
    "left" : 104,
    "right" : 260
  }, {
    "left" : 101,
    "right" : 110
  }, {
    "left" : 100,
    "right" : 32
  }, {
    "left" : 111,
    "right" : 110
  }, {
    "left" : 97,
    "right" : 116
  }, {
    "left" : 111,
    "right" : 114
  }, {
    "left" : 262,
    "right" : 267
  }, {
    "left" : 97,
    "right" : 110
  }, {
    "left" : 101,
    "right" : 115
  }, {
    "left" : 263,
    "right" : 103
  }, {
    "left" : 264,
    "right" : 110
  }, {
    "left" : 105,
    "right" : 116
  }, {
    "left" : 32,
    "right" : 115
  }, {
    "left" : 114,
    "right" : 101
  }, {
    "left" : 46,
    "right" : 261
  }, {
    "left" : 97,
    "right" : 108
  }, {
    "left" : 111,
    "right" : 102
  }, {
    "left" : 116,
    "right" : 32
  }, {
    "left" : 46,
    "right" : 32
  }, {
    "left" : 44,
    "right" : 32
  }, {
    "left" : 111,
    "right" : 117
  }, {
    "left" : 97,
    "right" : 114
  }, {
    "left" : 111,
    "right" : 32
  }, {
    "left" : 105,
    "right" : 99
  }, {
    "left" : 121,
    "right" : 32
  }, {
    "left" : 105,
    "right" : 270
  }, {
    "left" : 277,
    "right" : 269
  }, {
    "left" : 105,
    "right" : 115
  }, {
    "left" : 111,
    "right" : 109
  }, {
    "left" : 32,
    "right" : 99
  }, {
    "left" : 268,
    "right" : 116
  }, {
    "left" : 97,
    "right" : 115
  }, {
    "left" : 108,
    "right" : 101
  }, {
    "left" : 260,
    "right" : 116
  }, {
    "left" : 276,
    "right" : 32
  }, {
    "left" : 114,
    "right" : 111
  }, {
    "left" : 262,
    "right" : 104
  }, {
    "left" : 117,
    "right" : 115
  }, {
    "left" : 262,
    "right" : 289
  }, {
    "left" : 264,
    "right" : 32
  }, {
    "left" : 101,
    "right" : 108
  }, {
    "left" : 99,
    "right" : 104
  }, {
    "left" : 102,
    "right" : 272
  }, {
    "left" : 105,
    "right" : 118
  }, {
    "left" : 99,
    "right" : 116
  }, {
    "left" : 101,
    "right" : 100
  }, {
    "left" : 108,
    "right" : 111
  }, {
    "left" : 283,
    "right" : 32
  }, {
    "left" : 105,
    "right" : 108
  }, {
    "left" : 101,
    "right" : 269
  }, {
    "left" : 101,
    "right" : 116
  }, {
    "left" : 105,
    "right" : 266
  }, {
    "left" : 105,
    "right" : 109
  }, {
    "left" : 111,
    "right" : 108
  }, {
    "left" : 117,
    "right" : 114
  }, {
    "left" : 265,
    "right" : 32
  }, {
    "left" : 115,
    "right" : 116
  }, {
    "left" : 260,
    "right" : 97
  }, {
    "left" : 101,
    "right" : 266
  }, {
    "left" : 271,
    "right" : 292
  }, {
    "left" : 32,
    "right" : 32
  }, {
    "left" : 112,
    "right" : 302
  }, {
    "left" : 101,
    "right" : 109
  }, {
    "left" : 84,
    "right" : 267
  }, {
    "left" : 105,
    "right" : 103
  }, {
    "left" : 112,
    "right" : 108
  }, {
    "left" : 32,
    "right" : 119
  }, {
    "left" : 116,
    "right" : 104
  }, {
    "left" : 105,
    "right" : 100
  }, {
    "left" : 97,
    "right" : 109
  }, {
    "left" : 282,
    "right" : 32
  }, {
    "left" : 262,
    "right" : 111
  }, {
    "left" : 117,
    "right" : 116
  }, {
    "left" : 268,
    "right" : 99
  }, {
    "left" : 105,
    "right" : 114
  }, {
    "left" : 278,
    "right" : 104
  }, {
    "left" : 32,
    "right" : 98
  }, {
    "left" : 117,
    "right" : 110
  }, {
    "left" : 105,
    "right" : 102
  }, {
    "left" : 117,
    "right" : 108
  }, {
    "left" : 300,
    "right" : 267
  }, {
    "left" : 101,
    "right" : 120
  }, {
    "left" : 101,
    "right" : 99
  }, {
    "left" : 104,
    "right" : 97
  }, {
    "left" : 112,
    "right" : 111
  }, {
    "left" : 97,
    "right" : 103
  }, {
    "left" : 32,
    "right" : 263
  }, {
    "left" : 97,
    "right" : 99
  }, {
    "left" : 32,
    "right" : 109
  }, {
    "left" : 264,
    "right" : 114
  }, {
    "left" : 97,
    "right" : 98
  }, {
    "left" : 275,
    "right" : 115
  }, {
    "left" : 117,
    "right" : 109
  }, {
    "left" : 32,
    "right" : 100
  }, {
    "left" : 260,
    "right" : 274
  }, {
    "left" : 97,
    "right" : 263
  }, {
    "left" : 97,
    "right" : 107
  }, {
    "left" : 287,
    "right" : 114
  }, {
    "left" : 112,
    "right" : 265
  }, {
    "left" : 101,
    "right" : 118
  }, {
    "left" : 303,
    "right" : 271
  }, {
    "left" : 279,
    "right" : 116
  }, {
    "left" : 277,
    "right" : 100
  }, {
    "left" : 110,
    "right" : 111
  }, {
    "left" : 264,
    "right" : 108
  }, {
    "left" : 282,
    "right" : 108
  }, {
    "left" : 283,
    "right" : 273
  }, {
    "left" : 313,
    "right" : 119
  }, {
    "left" : 44,
    "right" : 293
  }, {
    "left" : 113,
    "right" : 117
  }, {
    "left" : 260,
    "right" : 115
  }, {
    "left" : 101,
    "right" : 281
  }, {
    "left" : 58,
    "right" : 32
  }, {
    "left" : 112,
    "right" : 114
  }, {
    "left" : 111,
    "right" : 112
  }, {
    "left" : 119,
    "right" : 104
  }, {
    "left" : 261,
    "right" : 330
  }, {
    "left" : 97,
    "right" : 100
  }, {
    "left" : 280,
    "right" : 271
  }, {
    "left" : 97,
    "right" : 121
  }, {
    "left" : 102,
    "right" : 114
  }, {
    "left" : 116,
    "right" : 265
  }, {
    "left" : 119,
    "right" : 342
  }, {
    "left" : 119,
    "right" : 272
  }, {
    "left" : 268,
    "right" : 284
  }, {
    "left" : 99,
    "right" : 295
  }, {
    "left" : 110,
    "right" : 101
  }, {
    "left" : 287,
    "right" : 110
  }, {
    "left" : 99,
    "right" : 270
  }, {
    "left" : 331,
    "right" : 104
  }, {
    "left" : 109,
    "right" : 111
  }, {
    "left" : 275,
    "right" : 116
  }, {
    "left" : 108,
    "right" : 260
  }, {
    "left" : 104,
    "right" : 101
  }, {
    "left" : 111,
    "right" : 119
  }, {
    "left" : 261,
    "right" : 67
  }, {
    "left" : 118,
    "right" : 265
  }, {
    "left" : 100,
    "right" : 117
  }, {
    "left" : 114,
    "right" : 105
  }, {
    "left" : 274,
    "right" : 32
  }, {
    "left" : 285,
    "right" : 73
  }, {
    "left" : 101,
    "right" : 102
  }, {
    "left" : 115,
    "right" : 281
  }, {
    "left" : 324,
    "right" : 32
  }, {
    "left" : 115,
    "right" : 286
  }, {
    "left" : 287,
    "right" : 108
  }, {
    "left" : 45,
    "right" : 32
  }, {
    "left" : 111,
    "right" : 111
  }, {
    "left" : 268,
    "right" : 265
  }, {
    "left" : 112,
    "right" : 101
  }, {
    "left" : 304,
    "right" : 116
  }, {
    "left" : 274,
    "right" : 103
  }, {
    "left" : 310,
    "right" : 260
  }, {
    "left" : 105,
    "right" : 122
  }, {
    "left" : 115,
    "right" : 293
  }, {
    "left" : 294,
    "right" : 116
  }, {
    "left" : 361,
    "right" : 269
  }, {
    "left" : 263,
    "right" : 32
  }, {
    "left" : 117,
    "right" : 100
  }, {
    "left" : 263,
    "right" : 273
  }, {
    "left" : 327,
    "right" : 327
  }, {
    "left" : 264,
    "right" : 266
  }, {
    "left" : 102,
    "right" : 101
  }, {
    "left" : 101,
    "right" : 112
  }, {
    "left" : 274,
    "right" : 116
  }, {
    "left" : 99,
    "right" : 108
  }, {
    "left" : 303,
    "right" : 101
  }, {
    "left" : 297,
    "right" : 340
  }, {
    "left" : 103,
    "right" : 114
  }, {
    "left" : 412,
    "right" : 269
  }, {
    "left" : 272,
    "right" : 116
  }, {
    "left" : 263,
    "right" : 116
  }, {
    "left" : 104,
    "right" : 271
  }, {
    "left" : 117,
    "right" : 112
  }, {
    "left" : 111,
    "right" : 99
  }, {
    "left" : 285,
    "right" : 65
  }, {
    "left" : 97,
    "right" : 112
  }, {
    "left" : 261,
    "right" : 65
  }, {
    "left" : 274,
    "right" : 99
  }, {
    "left" : 32,
    "right" : 318
  }, {
    "left" : 311,
    "right" : 292
  }, {
    "left" : 387,
    "right" : 295
  }, {
    "left" : 315,
    "right" : 108
  }, {
    "left" : 309,
    "right" : 109
  }, {
    "left" : 287,
    "right" : 116
  }, {
    "left" : 101,
    "right" : 286
  }, {
    "left" : 102,
    "right" : 320
  }, {
    "left" : 97,
    "right" : 308
  }, {
    "left" : 285,
    "right" : 84
  }, {
    "left" : 328,
    "right" : 118
  }, {
    "left" : 98,
    "right" : 101
  }, {
    "left" : 268,
    "right" : 32
  }, {
    "left" : 114,
    "right" : 275
  }, {
    "left" : 109,
    "right" : 297
  }, {
    "left" : 278,
    "right" : 121
  }, {
    "left" : 119,
    "right" : 101
  }, {
    "left" : 453,
    "right" : 374
  }, {
    "left" : 356,
    "right" : 260
  }, {
    "left" : 32,
    "right" : 294
  }, {
    "left" : 274,
    "right" : 100
  }, {
    "left" : 309,
    "right" : 32
  }, {
    "left" : 307,
    "right" : 108
  }, {
    "left" : 296,
    "right" : 295
  }, {
    "left" : 99,
    "right" : 99
  }, {
    "left" : 300,
    "right" : 289
  }, {
    "left" : 276,
    "right" : 273
  }, {
    "left" : 350,
    "right" : 118
  }, {
    "left" : 261,
    "right" : 73
  }, {
    "left" : 111,
    "right" : 116
  }, {
    "left" : 121,
    "right" : 287
  }, {
    "left" : 271,
    "right" : 260
  }, {
    "left" : 263,
    "right" : 100
  }, {
    "left" : 262,
    "right" : 114
  }, {
    "left" : 111,
    "right" : 334
  }, {
    "left" : 261,
    "right" : 71
  }, {
    "left" : 272,
    "right" : 32
  }, {
    "left" : 39,
    "right" : 266
  }, {
    "left" : 44,
    "right" : 279
  }, {
    "left" : 97,
    "right" : 118
  }, {
    "left" : 264,
    "right" : 279
  }, {
    "left" : 104,
    "right" : 318
  }, {
    "left" : 268,
    "right" : 100
  }, {
    "left" : 261,
    "right" : 87
  }, {
    "left" : 285,
    "right" : 330
  }, {
    "left" : 114,
    "right" : 278
  }, {
    "left" : 265,
    "right" : 115
  }, {
    "left" : 112,
    "right" : 437
  }, {
    "left" : 107,
    "right" : 32
  }, {
    "left" : 271,
    "right" : 97
  }, {
    "left" : 97,
    "right" : 266
  }, {
    "left" : 260,
    "right" : 314
  }, {
    "left" : 261,
    "right" : 413
  }, {
    "left" : 97,
    "right" : 311
  }, {
    "left" : 264,
    "right" : 115
  }, {
    "left" : 260,
    "right" : 99
  }, {
    "left" : 108,
    "right" : 291
  }, {
    "left" : 296,
    "right" : 270
  }, {
    "left" : 313,
    "right" : 103
  }, {
    "left" : 266,
    "right" : 314
  }, {
    "left" : 105,
    "right" : 337
  }, {
    "left" : 117,
    "right" : 308
  }, {
    "left" : 108,
    "right" : 105
  }, {
    "left" : 111,
    "right" : 100
  }, {
    "left" : 112,
    "right" : 288
  }, {
    "left" : 264,
    "right" : 98
  }, {
    "left" : 288,
    "right" : 110
  }, {
    "left" : 404,
    "right" : 99
  }, {
    "left" : 261,
    "right" : 83
  }, {
    "left" : 270,
    "right" : 32
  }, {
    "left" : 278,
    "right" : 292
  }, {
    "left" : 312,
    "right" : 305
  }, {
    "left" : 261,
    "right" : 68
  }, {
    "left" : 105,
    "right" : 275
  }, {
    "left" : 262,
    "right" : 101
  }, {
    "left" : 109,
    "right" : 272
  }, {
    "left" : 121,
    "right" : 286
  }, {
    "left" : 273,
    "right" : 115
  }, {
    "left" : 277,
    "right" : 32
  }, {
    "left" : 276,
    "right" : 279
  }, {
    "left" : 260,
    "right" : 100
  }, {
    "left" : 100,
    "right" : 265
  }, {
    "left" : 112,
    "right" : 339
  }, {
    "left" : 280,
    "right" : 298
  }, {
    "left" : 101,
    "right" : 103
  }, {
    "left" : 32,
    "right" : 314
  }, {
    "left" : 112,
    "right" : 280
  }, {
    "left" : 331,
    "right" : 110
  }, {
    "left" : 102,
    "right" : 265
  }, {
    "left" : 112,
    "right" : 104
  }, {
    "left" : 103,
    "right" : 310
  }, {
    "left" : 104,
    "right" : 307
  }, {
    "left" : 264,
    "right" : 100
  }, {
    "left" : 97,
    "right" : 291
  }, {
    "left" : 417,
    "right" : 295
  }, {
    "left" : 98,
    "right" : 260
  }, {
    "left" : 260,
    "right" : 283
  }, {
    "left" : 323,
    "right" : 114
  }, {
    "left" : 284,
    "right" : 314
  }, {
    "left" : 396,
    "right" : 116
  }, {
    "left" : 101,
    "right" : 288
  }, {
    "left" : 298,
    "right" : 116
  }, {
    "left" : 112,
    "right" : 299
  }, {
    "left" : 263,
    "right" : 260
  }, {
    "left" : 298,
    "right" : 115
  }, {
    "left" : 299,
    "right" : 512
  }, {
    "left" : 433,
    "right" : 341
  }, {
    "left" : 115,
    "right" : 305
  }, {
    "left" : 32,
    "right" : 102
  }, {
    "left" : 351,
    "right" : 115
  }, {
    "left" : 109,
    "right" : 363
  }, {
    "left" : 117,
    "right" : 280
  }, {
    "left" : 279,
    "right" : 104
  }, {
    "left" : 103,
    "right" : 104
  }, {
    "left" : 121,
    "right" : 364
  }, {
    "left" : 393,
[...]
